<unk>	0
<bos>	0
<eos>	0
<pad>	0
<0x00>	0
<0x01>	0
<0x02>	0
<0x03>	0
<0x04>	0
<0x05>	0
<0x06>	0
<0x07>	0
<0x08>	0
<0x09>	0
<0x0A>	0
<0x0B>	0
<0x0C>	0
<0x0D>	0
<0x0E>	0
<0x0F>	0
<0x10>	0
<0x11>	0
<0x12>	0
<0x13>	0
<0x14>	0
<0x15>	0
<0x16>	0
<0x17>	0
<0x18>	0
<0x19>	0
<0x1A>	0
<0x1B>	0
<0x1C>	0
<0x1D>	0
<0x1E>	0
<0x1F>	0
<0x20>	0
<0x21>	0
<0x22>	0
<0x23>	0
<0x24>	0
<0x25>	0
<0x26>	0
<0x27>	0
<0x28>	0
<0x29>	0
<0x2A>	0
<0x2B>	0
<0x2C>	0
<0x2D>	0
<0x2E>	0
<0x2F>	0
<0x30>	0
<0x31>	0
<0x32>	0
<0x33>	0
<0x34>	0
<0x35>	0
<0x36>	0
<0x37>	0
<0x38>	0
<0x39>	0
<0x3A>	0
<0x3B>	0
<0x3C>	0
<0x3D>	0
<0x3E>	0
<0x3F>	0
<0x40>	0
<0x41>	0
<0x42>	0
<0x43>	0
<0x44>	0
<0x45>	0
<0x46>	0
<0x47>	0
<0x48>	0
<0x49>	0
<0x4A>	0
<0x4B>	0
<0x4C>	0
<0x4D>	0
<0x4E>	0
<0x4F>	0
<0x50>	0
<0x51>	0
<0x52>	0
<0x53>	0
<0x54>	0
<0x55>	0
<0x56>	0
<0x57>	0
<0x58>	0
<0x59>	0
<0x5A>	0
<0x5B>	0
<0x5C>	0
<0x5D>	0
<0x5E>	0
<0x5F>	0
<0x60>	0
<0x61>	0
<0x62>	0
<0x63>	0
<0x64>	0
<0x65>	0
<0x66>	0
<0x67>	0
<0x68>	0
<0x69>	0
<0x6A>	0
<0x6B>	0
<0x6C>	0
<0x6D>	0
<0x6E>	0
<0x6F>	0
<0x70>	0
<0x71>	0
<0x72>	0
<0x73>	0
<0x74>	0
<0x75>	0
<0x76>	0
<0x77>	0
<0x78>	0
<0x79>	0
<0x7A>	0
<0x7B>	0
<0x7C>	0
<0x7D>	0
<0x7E>	0
<0x7F>	0
<0x80>	0
<0x81>	0
<0x82>	0
<0x83>	0
<0x84>	0
<0x85>	0
<0x86>	0
<0x87>	0
<0x88>	0
<0x89>	0
<0x8A>	0
<0x8B>	0
<0x8C>	0
<0x8D>	0
<0x8E>	0
<0x8F>	0
<0x90>	0
<0x91>	0
<0x92>	0
<0x93>	0
<0x94>	0
<0x95>	0
<0x96>	0
<0x97>	0
<0x98>	0
<0x99>	0
<0x9A>	0
<0x9B>	0
<0x9C>	0
<0x9D>	0
<0x9E>	0
<0x9F>	0
<0xA0>	0
<0xA1>	0
<0xA2>	0
<0xA3>	0
<0xA4>	0
<0xA5>	0
<0xA6>	0
<0xA7>	0
<0xA8>	0
<0xA9>	0
<0xAA>	0
<0xAB>	0
<0xAC>	0
<0xAD>	0
<0xAE>	0
<0xAF>	0
<0xB0>	0
<0xB1>	0
<0xB2>	0
<0xB3>	0
<0xB4>	0
<0xB5>	0
<0xB6>	0
<0xB7>	0
<0xB8>	0
<0xB9>	0
<0xBA>	0
<0xBB>	0
<0xBC>	0
<0xBD>	0
<0xBE>	0
<0xBF>	0
<0xC0>	0
<0xC1>	0
<0xC2>	0
<0xC3>	0
<0xC4>	0
<0xC5>	0
<0xC6>	0
<0xC7>	0
<0xC8>	0
<0xC9>	0
<0xCA>	0
<0xCB>	0
<0xCC>	0
<0xCD>	0
<0xCE>	0
<0xCF>	0
<0xD0>	0
<0xD1>	0
<0xD2>	0
<0xD3>	0
<0xD4>	0
<0xD5>	0
<0xD6>	0
<0xD7>	0
<0xD8>	0
<0xD9>	0
<0xDA>	0
<0xDB>	0
<0xDC>	0
<0xDD>	0
<0xDE>	0
<0xDF>	0
<0xE0>	0
<0xE1>	0
<0xE2>	0
<0xE3>	0
<0xE4>	0
<0xE5>	0
<0xE6>	0
<0xE7>	0
<0xE8>	0
<0xE9>	0
<0xEA>	0
<0xEB>	0
<0xEC>	0
<0xED>	0
<0xEE>	0
<0xEF>	0
<0xF0>	0
<0xF1>	0
<0xF2>	0
<0xF3>	0
<0xF4>	0
<0xF5>	0
<0xF6>	0
<0xF7>	0
<0xF8>	0
<0xF9>	0
<0xFA>	0
<0xFB>	0
<0xFC>	0
<0xFD>	0
<0xFE>	0
<0xFF>	0
an	-0
ar	-1
da	-2
▁k	-3
in	-4
▁a	-5
▁s	-6
ya	-7
▁da	-8
ma	-9
wa	-10
ta	-11
ka	-12
ha	-13
ba	-14
la	-15
ga	-16
▁ka	-17
oo	-18
na	-19
▁d	-20
▁wa	-21
sa	-22
▁ma	-23
▁ya	-24
▁የ	-25
▁ta	-26
ee	-27
▁m	-28
un	-29
▁A	-30
▁c	-31
▁ba	-32
▁ku	-33
hi	-34
▁S	-35
iy	-36
▁በ	-37
▁M	-38
▁አ	-39
▁እ	-40
▁sa	-41
iya	-42
ra	-43
▁y	-44
▁g	-45
▁n	-46
ara	-47
ii	-48
▁t	-49
▁na	-50
ana	-51
▁z	-52
▁w	-53
▁b	-54
on	-55
▁j	-56
▁h	-57
▁K	-58
▁u	-59
▁f	-60
en	-61
al	-62
su	-63
▁la	-64
▁su	-65
ur	-66
ad	-67
▁D	-68
▁መ	-69
ik	-70
▁ha	-71
▁B	-72
▁ga	-73
ir	-74
xa	-75
▁in	-76
is	-77
▁za	-78
▁mu	-79
id	-80
as	-81
▁oo	-82
ke	-83
▁W	-84
▁wan	-85
▁ከ	-86
am	-87
li	-88
▁ay	-89
ey	-90
iyo	-91
▁N	-92
er	-93
▁H	-94
uk	-95
▁sh	-96
▁T	-97
▁ce	-98
▁Ma	-99
▁ነ	-100
▁I	-101
▁G	-102
yan	-103
ab	-104
▁እን	-105
sh	-106
▁ne	-107
▁q	-108
▁ko	-109
▁yi	-110
uu	-111
..	-112
▁l	-113
ce	-114
dan	-115
▁ተ	-116
▁ይ	-117
um	-118
▁kuma	-119
▁r	-120
or	-121
tan	-122
gu	-123
sar	-124
▁C	-125
▁ለ	-126
▁iyo	-127
▁shi	-128
ay	-129
ban	-130
il	-131
፡፡	-132
▁waxa	-133
▁ah	-134
▁Y	-135
war	-136
nan	-137
▁J	-138
tar	-139
ikin	-140
ci	-141
ti	-142
san	-143
dda	-144
ari	-145
ki	-146
▁'	-147
▁ee	-148
▁ra	-149
▁ወ	-150
to	-151
kan	-152
ቸው	-153
le	-154
di	-155
bu	-156
▁ብ	-157
▁(	-158
kin	-159
om	-160
▁የሚ	-161
kar	-162
▁ስ	-163
▁L	-164
yar	-165
▁ያ	-166
yaa	-167
lla	-168
ani	-169
▁x	-170
are	-171
aa	-172
▁ም	-173
cin	-174
iyar	-175
▁R	-176
uwa	-177
▁F	-178
de	-179
hay	-180
▁kan	-181
▁daga	-182
▁sha	-183
een	-184
wan	-185
du	-186
▁ማ	-187
man	-188
▁sun	-189
mar	-190
▁i	-191
uga	-192
ku	-193
▁suka	-194
▁uu	-195
▁cikin	-196
▁dha	-197
▁kar	-198
lka	-199
▁am	-200
ida	-201
▁Wa	-202
▁ኣ	-203
▁ke	-204
ነት	-205
▁ji	-206
▁ነው	-207
ko	-208
yin	-209
bo	-210
▁ayaa	-211
▁Mu	-212
yi	-213
mu	-214
▁soo	-215
ji	-216
▁cewa	-217
▁ሰ	-218
fa	-219
▁mai	-220
tu	-221
▁kasar	-222
yo	-223
▁Da	-224
bi	-225
iki	-226
ላይ	-227
wam	-228
▁aka	-229
▁yan	-230
kii	-231
▁wannan	-232
ala	-233
▁san	-234
▁P	-235
▁ግ	-236
▁ክ	-237
▁Na	-238
lin	-239
si	-240
▁iya	-241
fi	-242
ዎች	-243
shi	-244
▁wani	-245
▁የተ	-246
▁so	-247
una	-248
bin	-249
mi	-250
▁Sh	-251
▁han	-252
ina	-253
▁gu	-254
ho	-255
ika	-256
me	-257
▁እንደ	-258
lo	-259
fin	-260
har	-261
sha	-262
▁O	-263
ugaban	-264
▁X	-265
▁kasa	-266
▁-	-267
▁ው	-268
▁ዝ	-269
maal	-270
arin	-271
lan	-272
▁እና	-273
go	-274
▁is	-275
ውን	-276
ada	-277
...	-278
▁ዘ	-279
▁Soo	-280
tin	-281
so	-282
▁ደ	-283
do	-284
▁e	-285
▁bayan	-286
eed	-287
▁Z	-288
anta	-289
ye	-290
ul	-291
▁Ka	-292
▁U	-293
▁ላይ	-294
▁ት	-295
▁mar	-296
ችን	-297
▁masu	-298
▁al	-299
▁tsa	-300
▁ባ	-301
she	-302
▁ሲ	-303
▁Ba	-304
uka	-305
▁dh	-306
▁Sa	-307
ni	-308
▁kwa	-309
omin	-310
▁Ya	-311
▁Soomaal	-312
▁fi	-313
jer	-314
us	-315
▁har	-316
anka	-317
▁an	-318
tay	-319
▁mata	-320
▁Ha	-321
mma	-322
ri	-323
በት	-324
ow	-325
▁loo	-326
▁dan	-327
▁si	-328
▁ድ	-329
▁ን	-330
▁gaba	-331
▁go	-332
▁wanda	-333
ge	-334
din	-335
▁E	-336
▁dai	-337
ል።	-338
▁she	-339
tsa	-340
▁ja	-341
ung	-342
▁ኢ	-343
ገር	-344
▁ci	-345
dii	-346
▁አን	-347
▁zai	-348
▁ዓ	-349
▁fa	-350
ለው	-351
nin	-352
wamna	-353
▁በመ	-354
bar	-355
▁ጥ	-356
jeriya	-357
gi	-358
oka	-359
za	-360
llah	-361
▁kai	-362
▁wasu	-363
be	-364
re	-365
▁jam	-366
ል፡፡	-367
te	-368
▁doo	-369
▁wax	-370
▁yana	-371
በር	-372
▁mid	-373
wo	-374
▁ki	-375
▁shugaban	-376
▁Q	-377
ca	-378
▁kara	-379
anar	-380
▁aan	-381
lay	-382
shin	-383
day	-384
▁ገ	-385
eega	-386
▁duk	-387
uh	-388
▁ቀ	-389
▁domin	-390
▁waxaa	-391
eyn	-392
▁Al	-393
jen	-394
▁lagu	-395
idan	-396
ura	-397
jin	-398
▁don	-399
▁So	-400
▁mutan	-401
▁waa	-402
se	-403
▁zuwa	-404
▁dhi	-405
▁far	-406
▁Ta	-407
▁nan	-408
▁ል	-409
▁Am	-410
▁መን	-411
ዚህ	-412
ሆን	-413
ትዮ	-414
usa	-415
▁ሁ	-416
eer	-417
▁hor	-418
▁እንዲ	-419
gan	-420
▁ƙ	-421
▁sam	-422
▁Najeriya	-423
yay	-424
ሆነ	-425
tta	-426
ትን	-427
▁loka	-428
▁ና	-429
asi	-430
umar	-431
▁ካ	-432
ja	-433
shen	-434
▁An	-435
▁di	-436
▁ugu	-437
▁o	-438
▁kale	-439
▁bay	-440
▁wu	-441
▁Ku	-442
▁suna	-443
ስተ	-444
▁Allah	-445
▁wata	-446
ጵያ	-447
kwa	-448
▁sai	-449
▁abin	-450
he	-451
▁yadda	-452
ትዮጵያ	-453
anin	-454
tun	-455
▁ake	-456
▁ar	-457
isa	-458
▁shir	-459
▁aha	-460
▁xa	-461
▁qa	-462
hin	-463
▁tsar	-464
▁wadan	-465
▁አይ	-466
ለም	-467
ስት	-468
mo	-469
doo	-470
▁ህ	-471
zu	-472
ለት	-473
mada	-474
▁jihar	-475
▁haka	-476
▁በአ	-477
▁የመ	-478
dax	-479
▁ግን	-480
▁በተ	-481
▁tare	-482
▁In	-483
▁gwamna	-484
▁matsa	-485
▁Waxa	-486
jal	-487
ungiyar	-488
▁ኣብ	-489
kon	-490
▁ሕ	-491
▁የአ	-492
uniya	-493
yana	-494
▁dad	-495
▁huk	-496
▁biy	-497
▁ስለ	-498
land	-499
AN	-500
▁Soomaaliya	-501
irin	-502
▁Af	-503
ig	-504
▁aad	-505
▁inda	-506
▁ወደ	-507
aray	-508
ያን	-509
▁samu	-510
fani	-511
ano	-512
▁mutane	-513
jo	-514
▁ቤ	-515
▁qo	-516
▁ban	-517
laa	-518
▁had	-519
qa	-520
▁du	-521
ስጥ	-522
gar	-523
ima	-524
▁badan	-525
▁Ra	-526
urka	-527
▁ɗ	-528
alka	-529
▁ለመ	-530
▁ca	-531
▁kuwa	-532
hu	-533
▁maga	-534
▁ጋ	-535
je	-536
sta	-537
▁no	-538
iri	-539
▁ጉ	-540
inta	-541
▁Jam	-542
ቶች	-543
▁man	-544
▁ሊ	-545
▁ታ	-546
▁shekar	-547
▁bayyana	-548
ll	-549
▁wajen	-550
▁yin	-551
ሆኑ	-552
ደር	-553
uhari	-554
▁sheega	-555
han	-556
▁ይህ	-557
ንድ	-558
▁to	-559
▁amfani	-560
iyyar	-561
▁yake	-562
▁do	-563
bba	-564
▁lokacin	-565
too	-566
▁ሳ	-567
▁Buhari	-568
no	-569
alada	-570
▁hi	-571
▁fara	-572
▁ለማ	-573
▁bin	-574
ቸውን	-575
ታት	-576
▁daya	-577
በረ	-578
kara	-579
▁ፍ	-580
▁ውስጥ	-581
▁tar	-582
▁ቅ	-583
▁waxay	-584
ደረ	-585
adda	-586
▁La	-587
▁እየ	-588
es	-589
ንም	-590
▁jir	-591
▁biyu	-592
uri	-593
▁kama	-594
▁amma	-595
gin	-596
▁laga	-597
▁kala	-598
▁በማ	-599
oon	-600
ርት	-601
AR	-602
iir	-603
jalis	-604
▁p	-605
▁suke	-606
him	-607
ia	-608
▁de	-609
▁Ko	-610
▁ranar	-611
annan	-612
ርስ	-613
▁war	-614
med	-615
▁ሃ	-616
▁ru	-617
▁yanzu	-618
▁Soma	-619
▁dalka	-620
▁ina	-621
▁ad	-622
el	-623
ud	-624
owla	-625
▁ቢ	-626
▁tun	-627
ጊዜ	-628
▁dake	-629
tii	-630
▁የሚያ	-631
▁abu	-632
naa	-633
yaan	-634
▁አስ	-635
jalisar	-636
▁bi	-637
▁Ga	-638
▁ho	-639
ood	-640
▁Shi	-641
urin	-642
ew	-643
▁nuna	-644
ራት	-645
ɓe	-646
▁sida	-647
ሪያ	-648
▁bir	-649
▁ነው።	-650
▁kamar	-651
▁jira	-652
xuu	-653
kama	-654
▁_	-655
▁ጠ	-656
uran	-657
ukan	-658
min	-659
▁wasan	-660
▁hada	-661
ምን	-662
tum	-663
▁ነው፡፡	-664
▁kungiyar	-665
far	-666
▁Hausa	-667
▁kya	-668
ali	-669
ter	-670
▁Is	-671
fiya	-672
▁sheegay	-673
▁hu	-674
▁yar	-675
▁aiki	-676
▁bar	-677
laha	-678
ro	-679
▁he	-680
fe	-681
▁idan	-682
ረት	-683
▁duniya	-684
▁inay	-685
sul	-686
▁watan	-687
▁የማ	-688
▁–	-689
iye	-690
▁Go	-691
▁ጋር	-692
▁Somali	-693
▁ነበር	-694
may	-695
asa	-696
▁[	-697
arka	-698
kanin	-699
▁kam	-700
▁ሓ	-701
kwai	-702
▁አለ	-703
▁Sha	-704
▁Za	-705
ayo	-706
ተኛ	-707
ira	-708
daxw	-709
▁Amurka	-710
▁bai	-711
▁zama	-712
▁din	-713
▁irin	-714
▁sabo	-715
hiin	-716
▁wada	-717
iyay	-718
com	-719
lar	-720
ben	-721
▁ሥ	-722
▁samun	-723
▁ወይ	-724
dun	-725
arai	-726
ugaba	-727
▁mo	-728
▁bab	-729
▁ni	-730
▁ጊዜ	-731
et	-732
መን	-733
▁qab	-734
ike	-735
ag	-736
dis	-737
mba	-738
▁tahay	-739
ድር	-740
▁እንዳ	-741
▁wadanda	-742
ዝብ	-743
aran	-744
▁saboda	-745
▁Abu	-746
▁Shugaban	-747
hii	-748
▁baya	-749
asha	-750
▁አንድ	-751
▁cu	-752
ኢትዮጵያ	-753
nu	-754
▁cin	-755
▁ሚ	-756
▁,	-757
▁አል	-758
▁Bo	-759
▁kal	-760
▁marka	-761
Yan	-762
▁tabba	-763
zi	-764
eyna	-765
▁እስ	-766
▁በሚ	-767
ገባ	-768
tt	-769
▁መንግ	-770
▁zar	-771
▁ነገር	-772
▁le	-773
tion	-774
▁siya	-775
ila	-776
▁birnin	-777
maha	-778
taa	-779
ድረ	-780
yen	-781
▁ada	-782
▁gwamnatin	-783
▁ፈ	-784
yada	-785
▁akan	-786
dhi	-787
eeg	-788
▁dar	-789
▁shaq	-790
▁ያለ	-791
ቱን	-792
▁Su	-793
co	-794
▁jami	-795
▁kun	-796
▁Ji	-797
amu	-798
danar	-799
▁ከተ	-800
▁ita	-801
▁ahaa	-802
ራዊ	-803
▁ከም	-804
▁wuxuu	-805
asar	-806
▁lab	-807
▁fad	-808
ton	-809
▁buka	-810
ትና	-811
▁yahay	-812
▁zaben	-813
ska	-814
▁:	-815
▁Maxa	-816
▁tsakanin	-817
▁ዕ	-818
ex	-819
▁ኢትዮጵያ	-820
kokin	-821
eeda	-822
▁aikin	-823
ሰብ	-824
shada	-825
▁yau	-826
▁kasashen	-827
PC	-828
iyan	-829
ሁን	-830
iyya	-831
ም።	-832
▁gar	-833
▁shiga	-834
▁masa	-835
sk	-836
▁ባለ	-837
▁kashe	-838
▁baa	-839
irka	-840
url	-841
uma	-842
▁zan	-843
▁ሁሉ	-844
▁sid	-845
▁dhac	-846
dar	-847
▁gudanar	-848
▁zaman	-849
eey	-850
▁ጉዳ	-851
kh	-852
▁guda	-853
▁Mar	-854
▁noq	-855
▁ሀ	-856
▁qaa	-857
▁ኤ	-858
zo	-859
▁dadka	-860
▁jin	-861
▁ኮ	-862
▁hukumar	-863
▁...	-864
▁ganin	-865
ine	-866
sana	-867
lama	-868
▁isa	-869
ግባ	-870
▁shekara	-871
▁kyau	-872
▁magaalada	-873
▁mutum	-874
▁መል	-875
gga	-876
▁qof	-877
iida	-878
▁ናይ	-879
▁game	-880
▁ciki	-881
▁እንደሚ	-882
baa	-883
▁ዋ	-884
bada	-885
ለን	-886
▁dama	-887
ንያ	-888
▁yayi	-889
▁Ni	-890
▁Somaliland	-891
▁kasan	-892
▁Wannan	-893
▁ray	-894
biya	-895
ed	-896
vi	-897
▁bu	-898
hon	-899
soo	-900
aram	-901
▁እያ	-902
▁Li	-903
▁yayin	-904
▁cewar	-905
▁Ab	-906
▁ana	-907
▁የም	-908
▁Ja	-909
▁babban	-910
▁Madaxw	-911
▁ደግ	-912
bay	-913
qdis	-914
▁ama	-915
▁tana	-916
▁tatta	-917
▁waxaana	-918
▁matsayin	-919
ts	-920
wai	-921
ukar	-922
uwar	-923
ብር	-924
▁ሌ	-925
ንግ	-926
qdisho	-927
uud	-928
▁Cab	-929
iyeed	-930
▁koo	-931
ፈል	-932
lam	-933
መለ	-934
▁waxaan	-935
▁APC	-936
eel	-937
ረጃ	-938
▁dam	-939
▁sana	-940
▁mag	-941
haa	-942
aika	-943
ገል	-944
wi	-945
hamma	-946
▁Man	-947
▁binc	-948
▁ሆ	-949
gay	-950
▁hanyar	-951
▁Dan	-952
ool	-953
▁kafa	-954
▁ሳይ	-955
▁kasance	-956
ሎች	-957
▁mul	-958
▁shekaru	-959
▁መስ	-960
▁tso	-961
▁sab	-962
▁ምን	-963
▁ደግሞ	-964
ጀመ	-965
ሮች	-966
▁taima	-967
▁hakan	-968
▁uga	-969
▁ሰው	-970
▁yankin	-971
▁ምክ	-972
say	-973
▁Muqdisho	-974
▁በእ	-975
▁kati	-976
ላት	-977
mman	-978
unta	-979
▁dowla	-980
▁min	-981
▁Le	-982
▁የእ	-983
can	-984
IN	-985
▁የነ	-986
nay	-987
ላቸው	-988
▁Was	-989
▁sauran	-990
▁ብቻ	-991
uni	-992
ray	-993
▁farko	-994
▁ዓመ	-995
eeyay	-996
ran	-997
▁gida	-998
ዳን	-999
▁.	-1000
▁Fa	-1001
▁markii	-1002
▁sama	-1003
▁akwai	-1004
uki	-1005
▁dib	-1006
▁sau	-1007
▁musa	-1008
▁kira	-1009
ub	-1010
ረው	-1011
▁kula	-1012
▁kw	-1013
adka	-1014
ሪካ	-1015
▁አባ	-1016
eeya	-1017
▁wasa	-1018
▁neman	-1019
▁koma	-1020
goo	-1021
fan	-1022
maan	-1023
▁yihiin	-1024
gal	-1025
▁joo	-1026
istan	-1027
ዲስ	-1028
▁Oo	-1029
▁yace	-1030
ልጣ	-1031
▁kawo	-1032
▁je	-1033
▁ብዙ	-1034
▁isku	-1035
ita	-1036
ure	-1037
kun	-1038
▁dhex	-1039
anda	-1040
ona	-1041
▁majalisar	-1042
▁ምስ	-1043
▁tabbatar	-1044
▁lafiya	-1045
▁Har	-1046
lada	-1047
boo	-1048
▁inuu	-1049
▁katika	-1050
BC	-1051
won	-1052
▁War	-1053
ንን	-1054
▁gidan	-1055
ችሁ	-1056
▁Gwamna	-1057
sara	-1058
ግዚ	-1059
ገድ	-1060
▁Kano	-1061
adi	-1062
▁ድር	-1063
bad	-1064
▁Muhamma	-1065
▁mafi	-1066
ዋል።	-1067
▁jama	-1068
▁V	-1069
abo	-1070
DP	-1071
▁gaar	-1072
▁taron	-1073
iyey	-1074
▁yawan	-1075
iger	-1076
we	-1077
ch	-1078
▁She	-1079
▁ɓ	-1080
ቅር	-1081
▁አስተ	-1082
▁ቤት	-1083
በሩ	-1084
▁Mai	-1085
▁babu	-1086
▁ቁ	-1087
ናት	-1088
//	-1089
st	-1090
▁takar	-1091
▁li	-1092
▁ahaan	-1093
▁Sai	-1094
▁ች	-1095
eynaha	-1096
ru	-1097
▁BBC	-1098
ista	-1099
▁kasu	-1100
ግር	-1101
ታዊ	-1102
አብ	-1103
ተው	-1104
▁ወይም	-1105
ኛው	-1106
▁Afr	-1107
ne	-1108
▁hay	-1109
▁New	-1110
▁አብ	-1111
▁dhaq	-1112
▁take	-1113
▁Ima	-1114
▁ruwa	-1115
▁abubu	-1116
ooyin	-1117
maa	-1118
▁Daga	-1119
ham	-1120
▁bara	-1121
ምህ	-1122
▁soc	-1123
ላል	-1124
መስ	-1125
wamnan	-1126
▁can	-1127
▁uku	-1128
....	-1129
rin	-1130
▁Mo	-1131
ርስቲ	-1132
▁hanka	-1133
ttp	-1134
ለቲ	-1135
ርያ	-1136
bta	-1137
▁ሙ	-1138
▁sake	-1139
▁DA	-1140
▁saba	-1141
▁caa	-1142
://	-1143
▁tir	-1144
▁dali	-1145
kamakon	-1146
sho	-1147
▁id	-1148
iyi	-1149
▁Niger	-1150
uba	-1151
▁Yan	-1152
xay	-1153
gen	-1154
▁samar	-1155
▁amin	-1156
ooda	-1157
▁Ho	-1158
▁Ar	-1159
▁Ada	-1160
ባት	-1161
▁maal	-1162
▁gobo	-1163
▁አካ	-1164
▁እነ	-1165
▁son	-1166
▁yawa	-1167
ፖለቲ	-1168
▁tsaro	-1169
▁Bab	-1170
ታቸው	-1171
ሉት	-1172
▁የሰ	-1173
▁Lab	-1174
▁gud	-1175
af	-1176
▁leh	-1177
▁bo	-1178
▁kare	-1179
iliyan	-1180
▁Soomaaliyeed	-1181
▁PDP	-1182
ado	-1183
liya	-1184
ዋል፡፡	-1185
▁Kam	-1186
▁maanta	-1187
▁mi	-1188
▁አመ	-1189
ከል	-1190
▁ፕ	-1191
ganta	-1192
▁Maga	-1193
anan	-1194
▁To	-1195
▁ከመ	-1196
▁Waxaa	-1197
▁shekarar	-1198
ede	-1199
▁ቃ	-1200
ዓት	-1201
▁musamman	-1202
▁gwamnati	-1203
ታወ	-1204
▁ካብ	-1205
ኋላ	-1206
ለሁ	-1207
urar	-1208
▁isla	-1209
iga	-1210
▁Sun	-1211
▁ahay	-1212
abka	-1213
ግዚአብ	-1214
▁De	-1215
▁v	-1216
▁xil	-1217
llon	-1218
▁Maxamed	-1219
▁Ah	-1220
fanin	-1221
▁ማለት	-1222
fu	-1223
▁il	-1224
▁rashin	-1225
▁ኃ	-1226
▁Boko	-1227
▁garin	-1228
▁lokaci	-1229
▁NA	-1230
▁gir	-1231
▁kawai	-1232
alla	-1233
diga	-1234
ለያ	-1235
ፊት	-1236
TA	-1237
ርትራ	-1238
▁Haram	-1239
ene	-1240
chi	-1241
arii	-1242
▁አይደ	-1243
▁እዩ	-1244
▁በዚህ	-1245
▁doona	-1246
kil	-1247
▁ናቸው	-1248
▁bisa	-1249
▁ሆነ	-1250
ck	-1251
▁እየተ	-1252
▁Gu	-1253
▁jar	-1254
▁qay	-1255
▁halka	-1256
▁sanya	-1257
▁goo	-1258
▁የወ	-1259
uul	-1260
gii	-1261
▁aika	-1262
▁sanar	-1263
▁Huk	-1264
▁hore	-1265
iyaha	-1266
ም፡፡	-1267
ብረ	-1268
ሔር	-1269
ፖለቲካ	-1270
▁Majalisar	-1271
▁ቤተ	-1272
▁fus	-1273
).	-1274
▁sakamakon	-1275
ድን	-1276
ቀር	-1277
anay	-1278
unt	-1279
▁ከአ	-1280
▁shirin	-1281
▁maka	-1282
▁musu	-1283
ከት	-1284
▁ቦ	-1285
ያስ	-1286
oni	-1287
ption	-1288
ገራ	-1289
bka	-1290
▁ጀ	-1291
ባቸው	-1292
▁ራ	-1293
የት	-1294
▁ሰዎች	-1295
▁bada	-1296
gor	-1297
taan	-1298
▁Afrika	-1299
▁deg	-1300
▁hoo	-1301
▁kowa	-1302
▁Kuma	-1303
ይወ	-1304
ድረግ	-1305
▁ጽ	-1306
dka	-1307
ኞች	-1308
▁Shugaba	-1309
▁Wani	-1310
ac	-1311
▁co	-1312
▁sii	-1313
idhi	-1314
▁yee	-1315
▁gana	-1316
ale	-1317
th	-1318
ww	-1319
iirka	-1320
bra	-1321
▁muka	-1322
▁ክፍ	-1323
▁shugaba	-1324
▁Mata	-1325
ዋል	-1326
▁የኢትዮጵያ	-1327
▁ቀን	-1328
eyne	-1329
AD	-1330
kiya	-1331
himman	-1332
ባቢ	-1333
▁taka	-1334
ግራ	-1335
▁Cabdi	-1336
▁ts	-1337
▁labarai	-1338
ዛሬ	-1339
ኔታ	-1340
ጠቀ	-1341
po	-1342
daha	-1343
eysa	-1344
siga	-1345
▁fito	-1346
▁kamata	-1347
ashi	-1348
isha	-1349
awa	-1350
unci	-1351
▁Wasa	-1352
▁ayy	-1353
▁karin	-1354
▁kada	-1355
▁hann	-1356
▁Dha	-1357
▁mutanen	-1358
AL	-1359
xii	-1360
▁cika	-1361
▁ፓ	-1362
▁መሆኑ	-1363
▁kwan	-1364
▁kafin	-1365
ɗe	-1366
uru	-1367
▁hana	-1368
▁tsarin	-1369
ini	-1370
▁sojo	-1371
▁qor	-1372
ukuu	-1373
▁News	-1374
▁sanda	-1375
▁Re	-1376
▁ምክንያ	-1377
▁አም	-1378
▁መሰ	-1379
▁kir	-1380
ኖር	-1381
karin	-1382
ከተ	-1383
ውያን	-1384
▁በኋላ	-1385
fo	-1386
ማሪ	-1387
dha	-1388
▁xir	-1389
ɗo	-1390
▁loogu	-1391
▁Far	-1392
ire	-1393
▁muu	-1394
▁of	-1395
ናን	-1396
zon	-1397
▁bayar	-1398
▁kwam	-1399
▁Kad	-1400
▁ጎ	-1401
pa	-1402
ሚያ	-1403
▁ከፍ	-1404
▁Sana	-1405
▁gan	-1406
▁kayan	-1407
▁inta	-1408
▁Duniya	-1409
▁amince	-1410
ገው	-1411
▁wadannan	-1412
▁እር	-1413
▁hai	-1414
book	-1415
katar	-1416
▁taimaka	-1417
ግል	-1418
araba	-1419
ባል	-1420
▁daban	-1421
▁Kan	-1422
ገን	-1423
ማት	-1424
▁ayuu	-1425
▁shar	-1426
▁dhacay	-1427
▁are	-1428
▁maha	-1429
▁sannan	-1430
kiisa	-1431
ላማ	-1432
amulka	-1433
ɗi	-1434
▁ኦ	-1435
▁/	-1436
ናል	-1437
▁karo	-1438
ርቲ	-1439
▁manyan	-1440
▁Idan	-1441
▁hak	-1442
▁ጉዳይ	-1443
lu	-1444
doom	-1445
▁ሁኔታ	-1446
▁sar	-1447
cebook	-1448
iko	-1449
ገኘ	-1450
▁gasar	-1451
ላለ	-1452
▁ር	-1453
▁Afirka	-1454
xda	-1455
ነው	-1456
▁tsohon	-1457
jar	-1458
tic	-1459
▁taba	-1460
▁zabe	-1461
▁zo	-1462
▁zasu	-1463
▁nin	-1464
▁ጨ	-1465
▁tan	-1466
▁Dowla	-1467
umma	-1468
▁Jihar	-1469
ng	-1470
▁́	-1471
cen	-1472
▁ያስ	-1473
ዎችን	-1474
ጥር	-1475
▁kokarin	-1476
den	-1477
▁xoo	-1478
▁fada	-1479
▁gaban	-1480
it	-1481
ምሮ	-1482
▁ጸ	-1483
▁tala	-1484
AS	-1485
AM	-1486
▁Are	-1487
ችል	-1488
▁mutu	-1489
▁qaar	-1490
▁gi	-1491
▁laa	-1492
▁Amma	-1493
ረስ	-1494
▁zargin	-1495
fiyar	-1496
shay	-1497
raalka	-1498
ken	-1499
iidamada	-1500
▁Nigeria	-1501
ere	-1502
▁looga	-1503
▁kwana	-1504
ተር	-1505
zan	-1506
▁ሞ	-1507
▁sabon	-1508
ምር	-1509
መል	-1510
▁ዜ	-1511
▁sheeg	-1512
▁wadda	-1513
▁nu	-1514
wla	-1515
▁kudi	-1516
▁▷	-1517
▁rubu	-1518
ጠር	-1519
▁Bar	-1520
▁gur	-1521
▁ብሎ	-1522
▁ዝተ	-1523
ላም	-1524
),	-1525
▁ያለው	-1526
▁bincike	-1527
▁የት	-1528
unka	-1529
▁yara	-1530
▁ala	-1531
untland	-1532
▁talla	-1533
▁Se	-1534
▁‹	-1535
ማራ	-1536
▁af	-1537
▁raho	-1538
▁shine	-1539
▁Kaduna	-1540
▁ምር	-1541
▁kudin	-1542
yoyin	-1543
▁jawa	-1544
▁jan	-1545
ሳት	-1546
▁tawa	-1547
▁ሽ	-1548
▁bakin	-1549
▁wana	-1550
iidan	-1551
▁Ana	-1552
ዚያ	-1553
▁አበ	-1554
▁riki	-1555
▁mum	-1556
▁aq	-1557
▁ዶ	-1558
▁hal	-1559
http	-1560
▁ዳ	-1561
▁lai	-1562
▁አይደለም	-1563
aan	-1564
▁bix	-1565
▁Abdu	-1566
sai	-1567
dhiba	-1568
▁we	-1569
ol	-1570
▁እስከ	-1571
▁hankali	-1572
madda	-1573
▁mara	-1574
▁ዘይ	-1575
ሳብ	-1576
!!	-1577
▁አድር	-1578
antar	-1579
▁weyn	-1580
araha	-1581
▁ኩ	-1582
ዱስ	-1583
ሥት	-1584
ቅም	-1585
ረዳ	-1586
▁Abuja	-1587
anu	-1588
abi	-1589
urai	-1590
▁iska	-1591
ber	-1592
▁ኤርትራ	-1593
ገለ	-1594
▁wato	-1595
iyoyin	-1596
▁ስር	-1597
sii	-1598
ቦች	-1599
yaasha	-1600
ishin	-1601
▁arz	-1602
ሪክ	-1603
▁Arewa	-1604
▁waɗ	-1605
▁Bayan	-1606
ama	-1607
yn	-1608
▁Di	-1609
▁ሲሆን	-1610
ገኙ	-1611
lle	-1612
▁tattauna	-1613
▁Puntland	-1614
ረጋ	-1615
aru	-1616
ታው	-1617
▁Ken	-1618
iil	-1619
▁የሆነ	-1620
▁halin	-1621
▁ቆ	-1622
ልን	-1623
▁ማስ	-1624
▁kor	-1625
▁ክርስቲ	-1626
▁dauki	-1627
ጣት	-1628
ሰው	-1629
ንስ	-1630
▁yaki	-1631
adan	-1632
መር	-1633
asan	-1634
eenka	-1635
ore	-1636
ክራ	-1637
ic	-1638
▁ሆኖ	-1639
▁ኣይ	-1640
▁dal	-1641
ቢያ	-1642
▁ህዝ	-1643
▁fitar	-1644
em	-1645
og	-1646
daan	-1647
gol	-1648
▁ti	-1649
▁jiya	-1650
▁zata	-1651
ያቄ	-1652
▁hannu	-1653
▁abo	-1654
▁laba	-1655
▁deega	-1656
ሉ።	-1657
▁kasta	-1658
▁mun	-1659
sub	-1660
▁አሁን	-1661
▁gabatar	-1662
iisa	-1663
jiya	-1664
▁Gobo	-1665
::	-1666
ታችን	-1667
▁Ibra	-1668
▁hali	-1669
▁hannun	-1670
▁Madaxweynaha	-1671
▁Hukumar	-1672
▁እቲ	-1673
▁እንጂ	-1674
idar	-1675
▁ab	-1676
▁mana	-1677
[/	-1678
ግዚአብሔር	-1679
▁harkokin	-1680
▁damar	-1681
▁አቶ	-1682
▁lahaa	-1683
▁te	-1684
ነበረ	-1685
ርድ	-1686
anada	-1687
ልና	-1688
kiin	-1689
▁qey	-1690
▁በላይ	-1691
▁daida	-1692
▁taray	-1693
bara	-1694
▁abubuwan	-1695
ፍት	-1696
eeyo	-1697
መራ	-1698
▁kwar	-1699
▁Duk	-1700
▁qayb	-1701
▁ሐ	-1702
▁ይች	-1703
▁wurin	-1704
▁kadi	-1705
▁Ne	-1706
cabka	-1707
arlama	-1708
▁hadda	-1709
▁gabata	-1710
ooyinka	-1711
▁dho	-1712
▁bukatar	-1713
undun	-1714
▁on	-1715
▁Mas	-1716
▁Tur	-1717
▁sidoo	-1718
▁Musul	-1719
▁Min	-1720
eeyey	-1721
ዎቹ	-1722
▁«	-1723
▁magana	-1724
▁makar	-1725
mad	-1726
ayeen	-1727
▁noo	-1728
▁madax	-1729
▁shafin	-1730
ገና	-1731
▁shirya	-1732
yara	-1733
▁kana	-1734
▁ድርጅ	-1735
▁ጥያቄ	-1736
▁dowladda	-1737
▁ran	-1738
omi	-1739
▁ቡ	-1740
laan	-1741
baab	-1742
▁ብር	-1743
eera	-1744
▁bul	-1745
▁Waa	-1746
▁Cali	-1747
ug	-1748
▁Jami	-1749
ami	-1750
yon	-1751
ing	-1752
▁nd	-1753
ለይ	-1754
▁ተጠ	-1755
▁wal	-1756
ayi	-1757
ልቅ	-1758
ህል	-1759
▁gask	-1760
▁mur	-1761
▁መብ	-1762
▁Ban	-1763
▁#	-1764
ይል	-1765
▁ህዝብ	-1766
gaba	-1767
ቶም	-1768
AB	-1769
▁tirsan	-1770
▁Muhammadu	-1771
ሎት	-1772
ሳይ	-1773
▁ሌላ	-1774
ልጣን	-1775
uke	-1776
▁bayani	-1777
baha	-1778
▁Gwamnatin	-1779
▁Gud	-1780
▁mulki	-1781
▁Kungiyar	-1782
undunar	-1783
ederaalka	-1784
pp	-1785
▁እኔ	-1786
▁cutar	-1787
ome	-1788
uhu	-1789
▁Kenya	-1790
mani	-1791
ምና	-1792
▁በቀ	-1793
▁siyasa	-1794
kuu	-1795
በል	-1796
▁dhan	-1797
▁doon	-1798
▁መካ	-1799
▁Sab	-1800
toobiya	-1801
▁ɗa	-1802
▁takarar	-1803
▁KU	-1804
kai	-1805
▁ሥራ	-1806
▁ነገ	-1807
▁ክል	-1808
iyaar	-1809
▁yiri	-1810
▁Gar	-1811
gun	-1812
▁በር	-1813
▁መጠ	-1814
▁ደረጃ	-1815
▁Magaalada	-1816
ቀው	-1817
ak	-1818
uta	-1819
uro	-1820
▁karka	-1821
ሰራ	-1822
▁yanar	-1823
ስፋ	-1824
▁መንገድ	-1825
▁fuskan	-1826
▁bal	-1827
▁ያል	-1828
▁musul	-1829
▁dara	-1830
▁bil	-1831
▁ስም	-1832
▁bangar	-1833
▁ዓመት	-1834
of	-1835
ሰማ	-1836
▁ዲ	-1837
▁Wasu	-1838
▁miliyan	-1839
▁Yi	-1840
▁ቦታ	-1841
▁የስ	-1842
▁ማን	-1843
biga	-1844
▁inganta	-1845
sun	-1846
▁fasa	-1847
▁Ax	-1848
▁hadlay	-1849
▁እም	-1850
▁amba	-1851
▁Sin	-1852
urta	-1853
▁dace	-1854
ግለ	-1855
▁haw	-1856
araa	-1857
▁bad	-1858
bakar	-1859
▁addin	-1860
cce	-1861
▁Masu	-1862
▁Me	-1863
▁gare	-1864
ክት	-1865
onal	-1866
▁me	-1867
▁gudun	-1868
▁Labarai	-1869
ረብ	-1870
▁ስራ	-1871
AY	-1872
▁iyadoo	-1873
ዘብ	-1874
▁ayyukan	-1875
▁mulkin	-1876
▁mee	-1877
▁ለአ	-1878
▁dawo	-1879
▁girma	-1880
arlamaanka	-1881
▁ge	-1882
▁ዓለም	-1883
▁dhina	-1884
▁Xil	-1885
toci	-1886
ኖች	-1887
▁kwallon	-1888
▁jagor	-1889
iyada	-1890
ƙa	-1891
▁Itoobiya	-1892
iken	-1893
▁ነበር።	-1894
▁Turai	-1895
▁baki	-1896
ver	-1897
መጣ	-1898
▁Iyo	-1899
ያው	-1900
▁caption	-1901
▁sidii	-1902
ሆና	-1903
▁sami	-1904
▁ili	-1905
IS	-1906
sarar	-1907
▁qar	-1908
▁muna	-1909
▁Yo	-1910
▁tamba	-1911
▁Image	-1912
▁fan	-1913
▁sabu	-1914
▁Tr	-1915
▁ii	-1916
▁gwamnan	-1917
▁Jamus	-1918
umi	-1919
▁dhawa	-1920
▁tayi	-1921
▁Ca	-1922
▁ከእ	-1923
iyadda	-1924
▁Ki	-1925
▁kamfanin	-1926
▁sosai	-1927
jan	-1928
alo	-1929
▁kung	-1930
git	-1931
▁ዛሬ	-1932
▁bata	-1933
gon	-1934
ያኔ	-1935
ሉ፡፡	-1936
▁kowan	-1937
▁wi	-1938
▁አገ	-1939
ለያዩ	-1940
▁gano	-1941
ተን	-1942
▁ተወ	-1943
ሩን	-1944
▁የህ	-1945
▁ይህን	-1946
ታይ	-1947
▁እንዲሁ	-1948
▁mak	-1949
teen	-1950
▁taas	-1951
ph	-1952
▁Had	-1953
▁Abubakar	-1954
▁Do	-1955
▁Isra	-1956
▁faa	-1957
▁fiye	-1958
iku	-1959
▁dauka	-1960
▁Sar	-1961
ደው	-1962
▁gwa	-1963
▁ilaa	-1964
hina	-1965
▁የማይ	-1966
nde	-1967
ክል	-1968
wara	-1969
▁ከዚህ	-1970
KA	-1971
ሱን	-1972
ሩት	-1973
rimaha	-1974
ነትን	-1975
▁Kasa	-1976
dex	-1977
▁አው	-1978
▁harin	-1979
aq	-1980
››	-1981
▁ከተማ	-1982
▁gaskiya	-1983
▁lam	-1984
inka	-1985
AH	-1986
ጣም	-1987
▁Xasan	-1988
ump	-1989
▁hukum	-1990
idoo	-1991
▁shafi	-1992
▁Pre	-1993
▁duba	-1994
▁Iran	-1995
ፈው	-1996
arax	-1997
ወሰ	-1998
▁መሆኑን	-1999
▁Jo	-2000
iro	-2001
ክር	-2002
ነሳ	-2003
lai	-2004
▁maza	-2005
ssa	-2006
ummar	-2007
ኩል	-2008
▁እው	-2009
▁የቀ	-2010
▁ሳይሆን	-2011
▁meel	-2012
lis	-2013
▁Sam	-2014
ss	-2015
▁dukkan	-2016
ɗa	-2017
▁Waxaan	-2018
ቤት	-2019
aga	-2020
ቱም	-2021
ah	-2022
▁በየ	-2023
ሞክራ	-2024
▁Ke	-2025
▁wakil	-2026
▁ቃል	-2027
▁cusub	-2028
▁rana	-2029
▁Bir	-2030
▁tu	-2031
▁basu	-2032
▁arewa	-2033
▁ከፍተኛ	-2034
▁ወን	-2035
ዘጋ	-2036
ለች	-2037
▁gobolka	-2038
▁sojojin	-2039
▁jirgin	-2040
ve	-2041
▁mama	-2042
መው	-2043
▁Legit	-2044
▁haa	-2045
ጠው	-2046
pe	-2047
▁‹‹	-2048
ጠና	-2049
▁Alha	-2050
▁sanad	-2051
▁alka	-2052
ayin	-2053
▁biyar	-2054
▁hudu	-2055
▁ካል	-2056
▁tattalin	-2057
IY	-2058
IJ	-2059
▁ድማ	-2060
▁xu	-2061
view	-2062
eedka	-2063
▁ziyar	-2064
▁ምክንያት	-2065
▁walla	-2066
marin	-2067
ንት	-2068
▁fil	-2069
▁ጭ	-2070
▁duwan	-2071
▁zu	-2072
don	-2073
▁muke	-2074
▁የነበረ	-2075
iiska	-2076
▁Faran	-2077
▁buga	-2078
▁የኢ	-2079
▁sani	-2080
▁ወቅ	-2081
▁ላ	-2082
▁Shir	-2083
▁Ibrahim	-2084
ይነት	-2085
▁ቅዱስ	-2086
▁karshen	-2087
mai	-2088
▁Qa	-2089
onin	-2090
sin	-2091
yayya	-2092
▁nasara	-2093
ይት	-2094
▁kusa	-2095
▁kuda	-2096
▁Kasar	-2097
▁ኪ	-2098
▁ila	-2099
▁ahayd	-2100
yoyi	-2101
▁Axmed	-2102
▁yo	-2103
iwa	-2104
▁ነበር፡፡	-2105
▁ተቀ	-2106
▁አበባ	-2107
che	-2108
▁እዚ	-2109
aalaha	-2110
▁ሚኒ	-2111
ሽን	-2112
▁Si	-2113
tuna	-2114
▁socda	-2115
▁shirka	-2116
ደም	-2117
ወጣ	-2118
ris	-2119
ደራ	-2120
ነቱ	-2121
ግብ	-2122
▁gani	-2123
enye	-2124
▁Ad	-2125
eeyahay	-2126
▁አዲስ	-2127
▁karkashin	-2128
▁መር	-2129
▁kasuwan	-2130
ገኝ	-2131
▁saka	-2132
▁gal	-2133
UN	-2134
▁ሰብ	-2135
ስን	-2136
በው	-2137
tawa	-2138
▁was	-2139
ላፊ	-2140
tocin	-2141
▁zanga	-2142
oog	-2143
▁dhow	-2144
ምህርት	-2145
▁fu	-2146
ገልግ	-2147
▁yanke	-2148
▁Ro	-2149
▁batun	-2150
iira	-2151
▁hab	-2152
ይወት	-2153
▁karshe	-2154
▁dubu	-2155
▁baxay	-2156
▁damb	-2157
▁መንግስት	-2158
▁isu	-2159
▁taag	-2160
▁labada	-2161
ori	-2162
▁Trump	-2163
▁haddii	-2164
ያዊ	-2165
ደት	-2166
▁Wata	-2167
▁re	-2168
anai	-2169
▁qeyb	-2170
tem	-2171
▁ruwan	-2172
▁Ee	-2173
ረን	-2174
wu	-2175
orin	-2176
▁Ali	-2177
iis	-2178
▁shaida	-2179
hadi	-2180
▁tashi	-2181
▁መካከል	-2182
ቀት	-2183
kooda	-2184
▁en	-2185
▁መሪ	-2186
karun	-2187
▁የበ	-2188
▁jiray	-2189
itin	-2190
ሜሪካ	-2191
▁Co	-2192
AW	-2193
▁Tsar	-2194
▁doono	-2195
▁Siya	-2196
▁Nijeriya	-2197
▁kau	-2198
▁በፊት	-2199
▁ju	-2200
▁ሲያ	-2201
▁wuce	-2202
ሉን	-2203
▁mat	-2204
▁Hu	-2205
isi	-2206
▁rasa	-2207
▁wali	-2208
eydi	-2209
aradda	-2210
ፈለ	-2211
jira	-2212
deen	-2213
▁kulan	-2214
ዮች	-2215
▁dagaal	-2216
ጀመሪያ	-2217
▁Madaxweyne	-2218
▁Ina	-2219
ጦር	-2220
eena	-2221
▁magan	-2222
ታል	-2223
▁Din	-2224
zar	-2225
xi	-2226
▁yidhi	-2227
ዓለም	-2228
▁Muu	-2229
▁hare	-2230
▁xaq	-2231
▁የሚል	-2232
▁Dr	-2233
▁asa	-2234
▁ከሚ	-2235
▁San	-2236
▁በስ	-2237
▁ዋና	-2238
▁Mr	-2239
iska	-2240
▁በጣም	-2241
dane	-2242
▁Facebook	-2243
▁ሕዝብ	-2244
unan	-2245
▁Gal	-2246
ኝነት	-2247
ty	-2248
አዴ	-2249
▁dauke	-2250
▁Ay	-2251
▁የታ	-2252
▁leeyahay	-2253
▁Federaalka	-2254
▁daidai	-2255
ddo	-2256
faa	-2257
▁NAIJ	-2258
▁ድረስ	-2259
ብል	-2260
▁ናብ	-2261
▁gaad	-2262
▁Don	-2263
iyeen	-2264
amin	-2265
▁የው	-2266
▁Zam	-2267
ይማ	-2268
ON	-2269
▁እንዲሁም	-2270
▁reer	-2271
ጠበ	-2272
aro	-2273
▁lamarin	-2274
▁Bu	-2275
▁በሰ	-2276
ጨረ	-2277
▁Po	-2278
▁Kudu	-2279
ባለ	-2280
ማር	-2281
iidanka	-2282
eri	-2283
▁aw	-2284
▁dawla	-2285
ታቸውን	-2286
▁raba	-2287
▁faru	-2288
▁ቢሆን	-2289
▁እንኳ	-2290
▁isaga	-2291
fara	-2292
▁tarayya	-2293
ዮን	-2294
▁እንተ	-2295
▁shawar	-2296
▁madaxw	-2297
kuwa	-2298
▁Mad	-2299
▁Du	-2300
▁በወ	-2301
ገኛ	-2302
▁ፕሮ	-2303
ፖሊ	-2304
ungu	-2305
ikh	-2306
▁እኛ	-2307
▁dala	-2308
▁Kal	-2309
kka	-2310
▁fas	-2311
▁bude	-2312
▁ተከ	-2313
jejen	-2314
diya	-2315
▁mada	-2316
▁siyaasa	-2317
▁way	-2318
▁buu	-2319
imakin	-2320
▁እንዴ	-2321
▁qaaday	-2322
▁muhimman	-2323
▁እንደሆነ	-2324
▁ስብ	-2325
▁Muhammad	-2326
▁Oba	-2327
ችንን	-2328
ም፣	-2329
▁Muna	-2330
▁ረ	-2331
▁Madax	-2332
ware	-2333
ይማኖ	-2334
▁heshi	-2335
ውል	-2336
▁፣	-2337
▁nau	-2338
▁ƙasa	-2339
▁abinda	-2340
▁mayar	-2341
▁ri	-2342
▁mwa	-2343
▁kashi	-2344
መድ	-2345
ግን	-2346
▁MA	-2347
mal	-2348
ishi	-2349
▁waje	-2350
adin	-2351
idda	-2352
tane	-2353
▁Xildhiba	-2354
▁kansa	-2355
▁Haka	-2356
▁Ti	-2357
tunan	-2358
▁Bay	-2359
▁garga	-2360
ደጋ	-2361
▁ምንም	-2362
ሄድ	-2363
▁ƙasar	-2364
▁እዩ።	-2365
ህን	-2366
ቶችን	-2367
▁የሚያስ	-2368
▁fii	-2369
▁guud	-2370
▁weer	-2371
▁aqoon	-2372
tanni	-2373
▁።	-2374
▁bax	-2375
isan	-2376
▁ተግባ	-2377
▁Gwamnan	-2378
saa	-2379
addan	-2380
▁yiwa	-2381
▁cigaba	-2382
▁daukar	-2383
cay	-2384
▁matsalar	-2385
▁dhaw	-2386
ፋት	-2387
gaan	-2388
▁ተብ	-2389
▁Tun	-2390
▁as	-2391
ይን	-2392
▁ክርስቲያን	-2393
▁ችግር	-2394
▁kadib	-2395
▁bana	-2396
▁adawa	-2397
umin	-2398
uren	-2399
▁ጣ	-2400
▁አቀ	-2401
ሠራ	-2402
gane	-2403
oro	-2404
aad	-2405
mawa	-2406
▁Rasha	-2407
▁አገር	-2408
ሰባ	-2409
▁shacabka	-2410
▁laca	-2411
doomiyaha	-2412
▁wanaag	-2413
▁shari	-2414
▁ለው	-2415
▁Yadda	-2416
▁kansu	-2417
▁ፓርቲ	-2418
▁kamma	-2419
▁magac	-2420
▁dil	-2421
ted	-2422
llahi	-2423
▁ቅድ	-2424
▁matakin	-2425
gta	-2426
ገሪ	-2427
▁rayuwar	-2428
diisa	-2429
▁kusan	-2430
▁goyon	-2431
▁aikata	-2432
▁jari	-2433
▁jagoran	-2434
eys	-2435
ንዳ	-2436
▁makon	-2437
▁nemi	-2438
▁binciken	-2439
cha	-2440
▁won	-2441
ቤተ	-2442
▁ik	-2443
▁Han	-2444
pan	-2445
▁ልዩ	-2446
▁Faransa	-2447
ላው	-2448
ጠራ	-2449
▁mala	-2450
▁maamulka	-2451
▁እጅ	-2452
▁ይችላ	-2453
deed	-2454
▁gina	-2455
wal	-2456
ማይ	-2457
▁መንግሥት	-2458
▁Raho	-2459
▁bayanan	-2460
kies	-2461
▁yakin	-2462
▁maa	-2463
▁Alhaji	-2464
▁Kar	-2465
▁Zan	-2466
▁At	-2467
▁masana	-2468
yawa	-2469
yihiin	-2470
▁kha	-2471
ቸዉ	-2472
▁abun	-2473
▁ዘመን	-2474
ሎም	-2475
▁hari	-2476
maad	-2477
▁kammala	-2478
▁kaga	-2479
▁Dowladda	-2480
manin	-2481
tee	-2482
▁kuri	-2483
▁»	-2484
▁fur	-2485
▁ciidamada	-2486
▁baahan	-2487
▁maso	-2488
ላዊ	-2489
ርን	-2490
▁cad	-2491
ciyar	-2492
▁Xukuu	-2493
▁መለ	-2494
▁Nijar	-2495
▁Gobolka	-2496
▁lahay	-2497
ys	-2498
መሰ	-2499
tor	-2500
▁ሥር	-2501
ono	-2502
▁Sida	-2503
▁dari	-2504
fur	-2505
▁ዓመታት	-2506
ሞክራሲ	-2507
▁kuto	-2508
▁ro	-2509
▁tari	-2510
▁lala	-2511
MA	-2512
▁yun	-2513
uku	-2514
▁እንዲህ	-2515
▁በም	-2516
▁soco	-2517
▁rikicin	-2518
ade	-2519
ብን	-2520
▁Shee	-2521
▁Sanata	-2522
▁Kwan	-2523
dh	-2524
▁xar	-2525
▁kaya	-2526
▁abinci	-2527
▁በኢትዮጵያ	-2528
▁ሴ	-2529
▁misa	-2530
▁DW	-2531
▁tace	-2532
▁rayuwa	-2533
▁shugabannin	-2534
▁Wasiirka	-2535
▁dole	-2536
▁Yanzu	-2537
▁Babban	-2538
▁laakiin	-2539
▁kowane	-2540
▁qaad	-2541
ደረገ	-2542
▁galay	-2543
▁lashe	-2544
▁Bin	-2545
▁fita	-2546
ema	-2547
▁rage	-2548
▁kul	-2549
▁labarin	-2550
▁hanya	-2551
▁Yana	-2552
aikatan	-2553
mid	-2554
ናዊ	-2555
▁ƙar	-2556
▁sayar	-2557
ዋን	-2558
eynta	-2559
▁fama	-2560
▁til	-2561
▁አሳ	-2562
ሰር	-2563
▁Tala	-2564
▁tsaron	-2565
sibi	-2566
▁የሕ	-2567
alin	-2568
▁Umar	-2569
▁ወቅት	-2570
▁Je	-2571
▁Kwa	-2572
▁dun	-2573
▁tsawon	-2574
▁በሌ	-2575
ido	-2576
▁biya	-2577
▁Abin	-2578
▁አንዱ	-2579
▁በተለይ	-2580
▁kyauta	-2581
ክስ	-2582
ske	-2583
▁Bur	-2584
▁Daa	-2585
ደን	-2586
unin	-2587
ili	-2588
▁Yu	-2589
▁እነዚህ	-2590
▁በት	-2591
▁ዘንድ	-2592
▁ወር	-2593
▁አፍ	-2594
ጆች	-2595
▁dhibaa	-2596
▁dab	-2597
▁አካባቢ	-2598
iyu	-2599
▁yarjejen	-2600
▁doora	-2601
amul	-2602
idi	-2603
▁Sara	-2604
▁No	-2605
ሉም	-2606
tsar	-2607
iisul	-2608
▁fahim	-2609
▁ayaan	-2610
▁Malam	-2611
▁bayanai	-2612
▁Musa	-2613
CC	-2614
fawa	-2615
ly	-2616
ደረጉ	-2617
jir	-2618
saday	-2619
ከር	-2620
▁yamma	-2621
▁nufin	-2622
▁markaana	-2623
▁ንግ	-2624
▁cod	-2625
▁addu	-2626
▁Adam	-2627
▁መጽ	-2628
▁boo	-2629
▁ገን	-2630
ድል	-2631
▁ባህ	-2632
▁hadin	-2633
▁ፋ	-2634
ree	-2635
▁Mun	-2636
▁Jar	-2637
qi	-2638
ሳቸው	-2639
▁tafi	-2640
wana	-2641
qay	-2642
▁se	-2643
ኑን	-2644
▁ጌ	-2645
▁Dalka	-2646
▁Wax	-2647
▁ጠቅ	-2648
በትን	-2649
▁መንግስ	-2650
▁halar	-2651
ናገ	-2652
▁ፖለቲካ	-2653
▁kamid	-2654
▁rundunar	-2655
▁MU	-2656
▁matan	-2657
ስና	-2658
▁Tsa	-2659
▁bulshada	-2660
iru	-2661
hara	-2662
daban	-2663
kunan	-2664
ከራ	-2665
የር	-2666
▁bangaren	-2667
▁ያሉ	-2668
qo	-2669
▁እግዚአብሔር	-2670
ino	-2671
ent	-2672
▁ዘመ	-2673
▁ሁለት	-2674
▁sare	-2675
:-	-2676
gana	-2677
kk	-2678
▁aanu	-2679
ኾነ	-2680
▁ለእ	-2681
▁kotun	-2682
ong	-2683
▁ተቃ	-2684
▁ብለው	-2685
ልም	-2686
ት፣	-2687
▁ታሪክ	-2688
php	-2689
uncin	-2690
bil	-2691
▁taa	-2692
▁ከማ	-2693
NG	-2694
▁maq	-2695
hiim	-2696
ጨማሪ	-2697
▁makama	-2698
▁Marka	-2699
▁Sal	-2700
▁መረጃ	-2701
▁deegaanka	-2702
▁sal	-2703
ጠቃ	-2704
▁Bor	-2705
▁yada	-2706
▁Baarlamaanka	-2707
▁shan	-2708
▁kasashe	-2709
▁matasa	-2710
▁malla	-2711
▁AL	-2712
▁የፖለቲካ	-2713
ሓት	-2714
fukan	-2715
▁ተፈ	-2716
▁sunan	-2717
▁SH	-2718
iid	-2719
ቅስ	-2720
▁ክን	-2721
▁be	-2722
▁ሂ	-2723
▁aga	-2724
ኤል	-2725
▁ተስፋ	-2726
eyso	-2727
ርስቶ	-2728
▁mac	-2729
ኦሮ	-2730
▁abubuwa	-2731
▁xukuu	-2732
▁doonaa	-2733
ዲያ	-2734
ers	-2735
ብረት	-2736
▁ሌሎች	-2737
▁@	-2738
▁juna	-2739
▁nasarar	-2740
ያት	-2741
ሥራ	-2742
▁&	-2743
ft	-2744
▁saa	-2745
▁የምን	-2746
linta	-2747
▁ተቋ	-2748
ለማ	-2749
▁kasoo	-2750
▁Iya	-2751
ራን	-2752
▁Ju	-2753
▁Hay	-2754
▁mas	-2755
▁Wad	-2756
▁noqo	-2757
▁Sani	-2758
erin	-2759
▁ዐ	-2760
▁በነ	-2761
adaha	-2762
▁litta	-2763
▁አገልግ	-2764
ልክ	-2765
tani	-2766
▁አድ	-2767
▁አር	-2768
▁አንዳ	-2769
▁ከሆነ	-2770
▁ይሄ	-2771
▁ɓe	-2772
▁bis	-2773
▁ሁለ	-2774
ባር	-2775
▁?	-2776
tsi	-2777
ID	-2778
badda	-2779
አዴግ	-2780
መረ	-2781
iso	-2782
aday	-2783
▁waka	-2784
▁Sheekh	-2785
▁dokar	-2786
yya	-2787
▁manu	-2788
ሳሌ	-2789
▁Ƙ	-2790
▁bukaci	-2791
▁mataki	-2792
በብ	-2793
hur	-2794
▁በጥ	-2795
▁ara	-2796
▁arziki	-2797
▁ብም	-2798
cewa	-2799
▁እንዲያ	-2800
▁ዘሎ	-2801
▁ቴ	-2802
▁xub	-2803
▁ሶ	-2804
▁rubuta	-2805
IR	-2806
op	-2807
▁dheer	-2808
▁kofin	-2809
▁እንዴት	-2810
▁dhamma	-2811
ለኛ	-2812
adhi	-2813
koo	-2814
▁አላ	-2815
▁lo	-2816
▁aya	-2817
▁cimma	-2818
naha	-2819
▁zargi	-2820
▁ዘለ	-2821
▁መንፈ	-2822
▁ሃገ	-2823
▁balse	-2824
▁ayay	-2825
dia	-2826
▁በማለት	-2827
ራል	-2828
▁az	-2829
▁ያህል	-2830
▁ልጅ	-2831
ውም	-2832
▁nde	-2833
kakin	-2834
une	-2835
ddamar	-2836
▁takara	-2837
muud	-2838
niga	-2839
ዳደር	-2840
▁እንዳይ	-2841
ሱስ	-2842
ኘት	-2843
uko	-2844
▁Tso	-2845
▁ውድ	-2846
▁doonaan	-2847
fofin	-2848
ደል	-2849
▁sabuwar	-2850
▁dangane	-2851
OM	-2852
tiga	-2853
ርቶ	-2854
▁Qar	-2855
ካታ	-2856
▁Golaha	-2857
▁የሚሰ	-2858
ገብ	-2859
▁aba	-2860
▁bur	-2861
▁shida	-2862
▁rika	-2863
▁dokokin	-2864
taniya	-2865
▁የለም	-2866
ዶች	-2867
xaa	-2868
llo	-2869
koa	-2870
▁KAR	-2871
ንቀ	-2872
▁nool	-2873
kanka	-2874
hal	-2875
▁Mudane	-2876
SA	-2877
▁kwamitin	-2878
iyiinta	-2879
▁በኩል	-2880
▁kananan	-2881
▁Mutane	-2882
ide	-2883
jalisa	-2884
▁wuta	-2885
▁ጋዜ	-2886
hana	-2887
▁fata	-2888
▁ስለዚህ	-2889
bai	-2890
▁ሊያ	-2891
ግራይ	-2892
▁tsare	-2893
▁cha	-2894
ቋን	-2895
▁Tal	-2896
▁labar	-2897
▁hala	-2898
▁muhiim	-2899
naan	-2900
shir	-2901
rada	-2902
ልፍ	-2903
▁inaan	-2904
▁kuwaas	-2905
▁xig	-2906
bix	-2907
▁እንደተ	-2908
▁soomaal	-2909
aama	-2910
ራቸው	-2911
▁sandan	-2912
▁jeed	-2913
iyaan	-2914
▁walba	-2915
ን።	-2916
ariga	-2917
▁አያ	-2918
ጨረሻ	-2919
▁jiho	-2920
▁kotu	-2921
biyar	-2922
▁kuu	-2923
▁ተመ	-2924
▁ሚኒስት	-2925
▁ዘር	-2926
isbiga	-2927
tanet	-2928
▁tara	-2929
▁wayar	-2930
▁Ye	-2931
suf	-2932
ሬት	-2933
▁Atiku	-2934
▁babbar	-2935
▁fatan	-2936
▁tsi	-2937
▁tura	-2938
▁Uni	-2939
▁daa	-2940
▁Ira	-2941
▁ሜ	-2942
ቻችን	-2943
ንና	-2944
ulka	-2945
EN	-2946
ታል።	-2947
▁um	-2948
▁matsalo	-2949
▁የብ	-2950
gara	-2951
ቀረ	-2952
▁ዩ	-2953
ቀመ	-2954
▁Nas	-2955
▁Muuse	-2956
ሞች	-2957
▁ድም	-2958
▁keen	-2959
▁Laraba	-2960
▁goma	-2961
ባዊ	-2962
▁—	-2963
▁saab	-2964
ቻቸው	-2965
▁Soomaalida	-2966
▁mwaka	-2967
ሄር	-2968
ባይ	-2969
▁mil	-2970
▁noqon	-2971
ito	-2972
▁waq	-2973
▁Premi	-2974
▁መሠ	-2975
tuwa	-2976
▁dhis	-2977
ish	-2978
▁ur	-2979
▁yarda	-2980
ፈጠ	-2981
▁gizo	-2982
▁ጀምሮ	-2983
▁የዘ	-2984
▁በአንድ	-2985
▁በሚል	-2986
ነጋ	-2987
barka	-2988
ፉት	-2989
▁ሃገር	-2990
▁asibi	-2991
▁ፀ	-2992
daa	-2993
▁ፖሊ	-2994
▁bam	-2995
▁kudaden	-2996
▁lee	-2997
fka	-2998
▁ñ	-2999
▁ken	-3000
▁adeeg	-3001
የው	-3002
WA	-3003
▁ሀገር	-3004
▁wixii	-3005
ድሞ	-3006
kana	-3007
▁Dar	-3008
▁Abdullahi	-3009
canta	-3010
koki	-3011
▁ማዕ	-3012
utar	-3013
▁isagoo	-3014
▁dhinac	-3015
eysay	-3016
▁biyo	-3017
▁wacce	-3018
▁ማድረግ	-3019
ሪዎች	-3020
▁fadin	-3021
▁hadal	-3022
ርሱ	-3023
▁ውጤ	-3024
▁Kai	-3025
dana	-3026
▁tuna	-3027
▁ትን	-3028
▁Ita	-3029
▁sace	-3030
▁daba	-3031
tse	-3032
▁mika	-3033
way	-3034
▁Ugu	-3035
uchi	-3036
▁Somalia	-3037
▁Shin	-3038
dooda	-3039
▁yasa	-3040
▁በው	-3041
▁ጉባ	-3042
▁komai	-3043
ገራችን	-3044
▁aure	-3045
▁baraz	-3046
kay	-3047
▁ፊ	-3048
▁Sabo	-3049
ጡት	-3050
▁የተሰ	-3051
▁Kamar	-3052
▁ለሚ	-3053
▁ሰላም	-3054
▁rahoton	-3055
▁kaddamar	-3056
waan	-3057
▁jikin	-3058
▁Borno	-3059
fen	-3060
ካም	-3061
ula	-3062
▁tas	-3063
tsina	-3064
UR	-3065
ɗin	-3066
thi	-3067
▁dhaawa	-3068
▁kull	-3069
▁Asa	-3070
▁The	-3071
yinka	-3072
▁karya	-3073
▁አት	-3074
▁በመሆኑ	-3075
▁shigar	-3076
▁jiragen	-3077
ስታ	-3078
...]	-3079
▁wanaagsan	-3080
▁car	-3081
▁tat	-3082
▁Ci	-3083
ashin	-3084
ገነ	-3085
yri	-3086
▁Mid	-3087
hiyar	-3088
ting	-3089
▁Dinkin	-3090
▁ለም	-3091
▁ስን	-3092
▁dalilin	-3093
ቡን	-3094
▁maalin	-3095
ርስቶስ	-3096
GA	-3097
▁ድን	-3098
dug	-3099
maajo	-3100
▁hijira	-3101
▁dakatar	-3102
ላችሁ	-3103
▁wad	-3104
lami	-3105
ang	-3106
▁አማራ	-3107
▁tafiya	-3108
▁fadar	-3109
ዛት	-3110
▁weli	-3111
▁Mur	-3112
yu	-3113
▁Ministan	-3114
▁dare	-3115
▁aj	-3116
▁umar	-3117
▁ገል	-3118
▁Tar	-3119
▁shirye	-3120
▁Ilaa	-3121
▁bee	-3122
arada	-3123
▁ይህንን	-3124
ፈጸ	-3125
▁ኢን	-3126
▁ido	-3127
baad	-3128
▁)	-3129
▁ኃይ	-3130
oogle	-3131
▁ganac	-3132
▁Akwai	-3133
▁ነቲ	-3134
▁xaqii	-3135
▁NAIJA	-3136
tinin	-3137
tal	-3138
▁ንም	-3139
gaa	-3140
▁Wasiir	-3141
▁kaas	-3142
▁Kor	-3143
▁fina	-3144
▁cid	-3145
▁farin	-3146
▁bikin	-3147
▁aysan	-3148
▁Maamulka	-3149
ዓል	-3150
ጠት	-3151
▁xaf	-3152
▁inaad	-3153
▁ኮሚ	-3154
▁door	-3155
▁biyan	-3156
idu	-3157
▁Qo	-3158
▁arzikin	-3159
▁hanyoyin	-3160
▁Xaa	-3161
▁በብ	-3162
nta	-3163
▁Anna	-3164
▁ይገባ	-3165
index	-3166
yaal	-3167
tada	-3168
▁Tan	-3169
ወቅ	-3170
▁ሸ	-3171
▁sano	-3172
▁hara	-3173
''	-3174
rid	-3175
ny	-3176
ጠይ	-3177
▁ለተ	-3178
▁ahayn	-3179
ቋንቋ	-3180
ciya	-3181
▁duu	-3182
ai	-3183
▁fim	-3184
▁Home	-3185
▁mako	-3186
▁Taray	-3187
▁men	-3188
▁matar	-3189
ANTA	-3190
▁Sudan	-3191
▁sabab	-3192
▁bid	-3193
▁የራ	-3194
ገደ	-3195
▁[...]	-3196
▁naz	-3197
▁ማህ	-3198
▁Ciidamada	-3199
▁ሓደ	-3200
▁ክት	-3201
ሳዊ	-3202
iyiin	-3203
▁karamar	-3204
▁El	-3205
▁wo	-3206
▁*	-3207
ጠቀም	-3208
▁rasu	-3209
ፈልጋ	-3210
▁As	-3211
ገሪቱ	-3212
▁Bauchi	-3213
▁nder	-3214
▁arrimaha	-3215
▁መሆን	-3216
▁Gan	-3217
▁abokan	-3218
▁ክልል	-3219
▁Amin	-3220
▁ትምህርት	-3221
▁haram	-3222
▁laifin	-3223
amka	-3224
ቃት	-3225
▁ሕዝ	-3226
ከላ	-3227
cad	-3228
▁Zab	-3229
▁fadi	-3230
▁የለ	-3231
▁የምት	-3232
▁አስፈ	-3233
ገኘው	-3234
ጥሮ	-3235
▁matsala	-3236
hamis	-3237
ram	-3238
▁aanay	-3239
▁ይመስ	-3240
▁sharci	-3241
▁kiran	-3242
▁ሙሉ	-3243
▁waki	-3244
ከብ	-3245
▁ያለውን	-3246
ን፣	-3247
▁caafi	-3248
▁matakan	-3249
bah	-3250
▁arag	-3251
ሳኔ	-3252
wood	-3253
▁Google	-3254
▁Caa	-3255
bangi	-3256
ry	-3257
▁shee	-3258
▁የሆኑ	-3259
▁sadar	-3260
▁ብለ	-3261
▁Wu	-3262
▁ትር	-3263
▁ፕሬ	-3264
▁Katsina	-3265
▁ተሰ	-3266
▁Domin	-3267
unar	-3268
▁WA	-3269
▁kundin	-3270
ger	-3271
▁the	-3272
▁በሁ	-3273
▁ባይ	-3274
dole	-3275
▁ቁጥር	-3276
wii	-3277
ኖሩ	-3278
ongo	-3279
▁jiraan	-3280
▁Waxay	-3281
▁zaka	-3282
▁and	-3283
▁መግለ	-3284
ፈር	-3285
doon	-3286
▁dhin	-3287
▁waxaad	-3288
ጥታ	-3289
▁dhax	-3290
ናው	-3291
▁kwanaki	-3292
የሱስ	-3293
▁dhig	-3294
▁mace	-3295
ster	-3296
▁hukuncin	-3297
መት	-3298
▁Be	-3299
▁Cumar	-3300
▁hausa	-3301
kuna	-3302
▁Sidoo	-3303
ለውን	-3304
▁በሙ	-3305
ኮኖ	-3306
OO	-3307
adir	-3308
▁dhal	-3309
ታል፡፡	-3310
▁http	-3311
www	-3312
▁maya	-3313
▁mataimakin	-3314
▁Hutu	-3315
net	-3316
and	-3317
▁Bel	-3318
hinta	-3319
▁qora	-3320
▁sada	-3321
▁ሠ	-3322
qaa	-3323
▁Ben	-3324
jinta	-3325
bur	-3326
▁rai	-3327
▁saman	-3328
▁tsan	-3329
ze	-3330
▁dii	-3331
▁Fi	-3332
line	-3333
▁Maxamuud	-3334
ገቡ	-3335
▁vi	-3336
▁ድርጅት	-3337
▁Saboda	-3338
dancin	-3339
ከፍ	-3340
▁wai	-3341
▁Farmaajo	-3342
ƙi	-3343
▁ofishin	-3344
gila	-3345
▁amsa	-3346
▁KA	-3347
▁baiwa	-3348
▁በታ	-3349
huur	-3350
▁nolo	-3351
▁Kwam	-3352
▁gwi	-3353
▁jiki	-3354
▁saabsan	-3355
▁አጋ	-3356
▁ገንዘብ	-3357
▁ጦር	-3358
ቅድ	-3359
▁•	-3360
▁qabtay	-3361
▁rufe	-3362
ያዘ	-3363
ገረ	-3364
▁እንድ	-3365
▁እንኳን	-3366
arr	-3367
▁ግብ	-3368
▁በህ	-3369
▁Turk	-3370
▁zamani	-3371
▁magaca	-3372
▁kanta	-3373
eysan	-3374
▁nabad	-3375
▁gari	-3376
▁yunk	-3377
▁dhaqan	-3378
▁saar	-3379
▁አማ	-3380
▁የሌ	-3381
adar	-3382
▁cikak	-3383
aikatar	-3384
▁Koo	-3385
▁Saud	-3386
▁ችግ	-3387
▁nasa	-3388
▁ይሁን	-3389
▁የግ	-3390
▁ምርጫ	-3391
▁jerin	-3392
▁kuna	-3393
▁nada	-3394
▁isugu	-3395
ዲህ	-3396
hel	-3397
▁qofka	-3398
▁Te	-3399
▁Syri	-3400
▁kenan	-3401
at	-3402
▁Hutudole	-3403
eedahay	-3404
▁istic	-3405
ደርግ	-3406
▁karfin	-3407
ash	-3408
▁Yace	-3409
▁taro	-3410
▁Gaba	-3411
DA	-3412
▁makko	-3413
በቃ	-3414
▁ዓይነት	-3415
▁IS	-3416
▁kiya	-3417
ቅና	-3418
alas	-3419
▁kasuwa	-3420
eyd	-3421
▁batu	-3422
▁China	-3423
ሳተ	-3424
▁gagga	-3425
ባብ	-3426
▁Ru	-3427
ER	-3428
▁bashi	-3429
▁''	-3430
▁soma	-3431
▁Isa	-3432
▁የነበሩ	-3433
▁Masar	-3434
ቻል	-3435
▁addini	-3436
▁Ri	-3437
▁Shehu	-3438
▁አለመ	-3439
▁Sojo	-3440
▁filin	-3441
▁›	-3442
ብት	-3443
▁መብት	-3444
▁የጥ	-3445
▁hanci	-3446
▁riga	-3447
ም፤	-3448
▁ሱ	-3449
እን	-3450
▁ɗum	-3451
▁dakarun	-3452
▁sojoji	-3453
▁ለማስ	-3454
kiyar	-3455
▁baxa	-3456
va	-3457
▁ኢትዮጵያዊ	-3458
ct	-3459
▁መደ	-3460
▁manema	-3461
▁አዳ	-3462
▁shawara	-3463
tiisa	-3464
▁sir	-3465
▁ministan	-3466
▁Hal	-3467
▁yarjejeniyar	-3468
ረጋገ	-3469
▁gidajen	-3470
▁ወጣ	-3471
▁sojin	-3472
ጠቅ	-3473
▁መጥ	-3474
▁Tsohon	-3475
bbi	-3476
qda	-3477
ነትና	-3478
▁በሕ	-3479
▁ክፍል	-3480
▁Saraki	-3481
▁danganta	-3482
▁guu	-3483
▁$	-3484
▁nahiyar	-3485
ነግ	-3486
ዩ።	-3487
yaha	-3488
▁mahai	-3489
wamn	-3490
llaa	-3491
▁dada	-3492
▁guul	-3493
▁nga	-3494
▁፤	-3495
eeyaan	-3496
▁taimakawa	-3497
▁intanet	-3498
son	-3499
▁kungiyoyin	-3500
▁degmada	-3501
arinta	-3502
les	-3503
huriyar	-3504
▁hiyo	-3505
iyoyi	-3506
▁gyara	-3507
▁kud	-3508
▁ሪ	-3509
▁Bii	-3510
▁kayayya	-3511
▁kasuwanci	-3512
ጋት	-3513
▁ሁሉም	-3514
gas	-3515
amo	-3516
geysa	-3517
▁Qara	-3518
ቅስቃ	-3519
▁ተና	-3520
ባለው	-3521
▁ስርዓት	-3522
▁እጅግ	-3523
maadka	-3524
ነስ	-3525
▁too	-3526
▁IN	-3527
በለ	-3528
kani	-3529
kood	-3530
ህአዴግ	-3531
▁leedahay	-3532
ካል	-3533
▁እንግ	-3534
▁qaba	-3535
bobin	-3536
ችሉ	-3537
▁Dal	-3538
▁ናቸው።	-3539
▁kimanin	-3540
▁Deg	-3541
wada	-3542
▁አቅ	-3543
▁በራ	-3544
▁ነፃ	-3545
▁maamul	-3546
▁gara	-3547
uraren	-3548
idh	-3549
▁hankalin	-3550
▁kur	-3551
▁kadan	-3552
▁bila	-3553
marka	-3554
ፈት	-3555
▁hadla	-3556
▁cab	-3557
▁ሺ	-3558
▁Rahotanni	-3559
▁በፍ	-3560
ግኘት	-3561
▁መሰረት	-3562
rax	-3563
▁dhigay	-3564
▁ከኣ	-3565
noo	-3566
▁Sir	-3567
▁Syria	-3568
▁wasanni	-3569
▁kullum	-3570
▁ህዝቢ	-3571
▁ይዘ	-3572
yahay	-3573
▁Kir	-3574
uur	-3575
--	-3576
ደረግ	-3577
qor	-3578
▁Cikin	-3579
hama	-3580
▁ተገ	-3581
mes	-3582
nar	-3583
▁Sheikh	-3584
▁dasu	-3585
▁waayo	-3586
▁mutuwar	-3587
▁waxayna	-3588
ካሄ	-3589
▁hukumomin	-3590
nimo	-3591
list	-3592
▁Mal	-3593
aladda	-3594
▁መድረ	-3595
sli	-3596
▁ጳ	-3597
alad	-3598
▁qaab	-3599
▁kalm	-3600
ግጥ	-3601
▁መነ	-3602
iwatar	-3603
▁leydi	-3604
▁rike	-3605
▁fuskantar	-3606
▁iyada	-3607
inai	-3608
▁waɗanda	-3609
▁ከነ	-3610
▁makamai	-3611
▁Kas	-3612
ccen	-3613
qu	-3614
ተና	-3615
▁ጥቅም	-3616
ችው	-3617
▁የሀ	-3618
▁Zamfara	-3619
▁jaridar	-3620
▁በደ	-3621
Sha	-3622
▁ለዚህ	-3623
▁የመንግ	-3624
▁BA	-3625
user	-3626
▁ruwaito	-3627
▁ሲል	-3628
kari	-3629
ukun	-3630
hammed	-3631
ቅስቃሴ	-3632
▁sheegeen	-3633
aya	-3634
▁መቀ	-3635
▁addinin	-3636
▁Mkuu	-3637
▁ilimi	-3638
tsu	-3639
▁አመራ	-3640
▁Babu	-3641
▁laha	-3642
▁shafukan	-3643
▁meesha	-3644
ንተ	-3645
▁Kwankwa	-3646
linyara	-3647
▁ሰዓት	-3648
▁dhamaan	-3649
▁የተለያዩ	-3650
ላጊ	-3651
▁kin	-3652
▁አሰ	-3653
▁ወያኔ	-3654
one	-3655
▁ስት	-3656
▁ዙ	-3657
▁Musulunci	-3658
▁kujer	-3659
▁Chi	-3660
▁karatu	-3661
▁yanayin	-3662
▁matukar	-3663
ጎች	-3664
kawa	-3665
ይማኖት	-3666
ሊዮን	-3667
▁በርካታ	-3668
??	-3669
▁KARANTA	-3670
wari	-3671
▁taarii	-3672
▁sheegtay	-3673
▁tattaunawa	-3674
ስብ	-3675
▁AM	-3676
ጋራ	-3677
▁fof	-3678
▁wuxuuna	-3679
▁kwenye	-3680
▁tsaye	-3681
fafa	-3682
bab	-3683
ይኑ	-3684
▁how	-3685
▁hakkin	-3686
▁Doo	-3687
lia	-3688
▁Biixi	-3689
▁lafiyar	-3690
▁Turkiyya	-3691
▁He	-3692
▁hoos	-3693
▁Mista	-3694
warin	-3695
▁jo	-3696
▁የደ	-3697
for	-3698
lamka	-3699
▁Amirka	-3700
▁haifar	-3701
▁kamfan	-3702
▁qaada	-3703
llar	-3704
▁ciyaar	-3705
ዳር	-3706
ኛውም	-3707
▁ለምን	-3708
▁dhashay	-3709
▁ምዕ	-3710
item	-3711
▁naf	-3712
than	-3713
addanci	-3714
option	-3715
▁ተብሎ	-3716
tare	-3717
▁tunanin	-3718
▁ዝር	-3719
task	-3720
▁tashin	-3721
▁kuka	-3722
▁ነዉ	-3723
▁muddo	-3724
▁አለበት	-3725
ርያም	-3726
itemlist	-3727
kataren	-3728
▁kuwo	-3729
aikata	-3730
▁diyaar	-3731
anaya	-3732
▁samay	-3733
▁Ubangi	-3734
ረድ	-3735
illa	-3736
▁Jona	-3737
▁ቡድን	-3738
▁duka	-3739
etur	-3740
▁ማኅ	-3741
▁wuri	-3742
▁aiwatar	-3743
▁ህግ	-3744
▁dashi	-3745
leed	-3746
ሮም	-3747
ral	-3748
ይና	-3749
araakii	-3750
▁Isla	-3751
inin	-3752
▁Dh	-3753
▁tuh	-3754
ቆጣ	-3755
▁dhaawac	-3756
▁sad	-3757
▁kadai	-3758
▁dhammaan	-3759
▁Gam	-3760
▁Janar	-3761
▁kallon	-3762
▁joog	-3763
ገት	-3764
▁shigo	-3765
ተኞች	-3766
ዘይ	-3767
▁ዉ	-3768
▁ናቸው፡፡	-3769
ኒቨ	-3770
▁እንዳለ	-3771
ቀጥ	-3772
ቡብ	-3773
▁Talata	-3774
▁ውሳኔ	-3775
▁qii	-3776
tti	-3777
ደርጉ	-3778
▁sugan	-3779
ሰን	-3780
guna	-3781
ɓa	-3782
raa	-3783
▁ani	-3784
▁yanayi	-3785
aamac	-3786
▁አገልግሎት	-3787
goya	-3788
ረም	-3789
mm	-3790
▁እንቅስቃሴ	-3791
BA	-3792
ደረገው	-3793
▁shaqo	-3794
▁Ber	-3795
ያዝ	-3796
tuka	-3797
ላክ	-3798
▁ጉባኤ	-3799
▁Sarkin	-3800
▁heer	-3801
▁Ge	-3802
qaale	-3803
▁Wasaaradda	-3804
▁doka	-3805
EC	-3806
zai	-3807
ቀል	-3808
▁Bi	-3809
ሁንም	-3810
▁Jamhuur	-3811
iyon	-3812
▁የሚለው	-3813
▁qaban	-3814
ምጃ	-3815
iyara	-3816
▁በኢ	-3817
▁ቋንቋ	-3818
▁ነጻ	-3819
▁የል	-3820
▁Juma	-3821
▁dhanka	-3822
▁kisan	-3823
▁muhimmanci	-3824
▁Aq	-3825
▁ለውጥ	-3826
▁TA	-3827
load	-3828
weyn	-3829
▁ጥሩ	-3830
▁tsara	-3831
ቦት	-3832
▁for	-3833
ስር	-3834
▁ዝግ	-3835
▁Madrid	-3836
ርክ	-3837
amma	-3838
▁Pa	-3839
▁Mi	-3840
▁ጠቅላይ	-3841
▁diya	-3842
▁alha	-3843
▁musulmi	-3844
fai	-3845
▁mamaki	-3846
own	-3847
▁Wuxuu	-3848
ማን	-3849
antu	-3850
▁Alhamis	-3851
▁ስለሆነ	-3852
nada	-3853
▁dukan	-3854
ቂያ	-3855
▁bindiga	-3856
▁leeyihiin	-3857
▁Maanta	-3858
ዎን	-3859
▁oga	-3860
nimada	-3861
ikar	-3862
▁muku	-3863
ራይ	-3864
▁sauya	-3865
▁YA	-3866
▁አጥ	-3867
ክርስቲ	-3868
▁You	-3869
▁ከዚያ	-3870
▁አዋ	-3871
DD	-3872
ሁኑ	-3873
▁Litinin	-3874
▁waan	-3875
▁Wanda	-3876
▁dhaaf	-3877
ሙን	-3878
▁jirto	-3879
ጠል	-3880
▁tilmaa	-3881
▁ያሳ	-3882
▁Mada	-3883
▁Hargeysa	-3884
Ma	-3885
▁Hoo	-3886
▁Par	-3887
▁Boo	-3888
▁Sala	-3889
▁mahad	-3890
▁ግንኙ	-3891
▁bukata	-3892
ፈራ	-3893
ፖርት	-3894
▁tsaya	-3895
▁ciidanka	-3896
ደግ	-3897
▁muuqa	-3898
▁ስል	-3899
▁raj	-3900
▁መንግሥ	-3901
ነበር	-3902
ተት	-3903
malt	-3904
gel	-3905
ወስ	-3906
▁jiro	-3907
ሕሪ	-3908
fun	-3909
▁fiican	-3910
▁ልብ	-3911
▁ዋጋ	-3912
▁hir	-3913
▁lacag	-3914
▁halkaas	-3915
▁zaga	-3916
▁salla	-3917
▁kaluba	-3918
▁og	-3919
▁inji	-3920
▁ግዜ	-3921
ውና	-3922
ላን	-3923
wani	-3924
ፍን	-3925
sanin	-3926
▁qara	-3927
▁waana	-3928
▁kee	-3929
▁ዕድ	-3930
lci	-3931
▁ደር	-3932
xaad	-3933
gir	-3934
wun	-3935
jiyar	-3936
▁Jonathan	-3937
ዝር	-3938
▁Yar	-3939
▁xarunta	-3940
▁ciida	-3941
▁Ingila	-3942
shar	-3943
▁በዘ	-3944
ምነት	-3945
▁ዝም	-3946
▁fadhi	-3947
▁karfi	-3948
▁አይነት	-3949
▁Xukuumadda	-3950
▁aynu	-3951
▁ክርስቶስ	-3952
ዚሁ	-3953
eeyeen	-3954
ኽእ	-3955
▁bari	-3956
▁ziyarar	-3957
ኮኖሚ	-3958
gwa	-3959
baahinta	-3960
oron	-3961
▁ikon	-3962
▁kooban	-3963
▁bandhi	-3964
▁harkar	-3965
▁shawarar	-3966
caan	-3967
▁lahayn	-3968
▁yaya	-3969
▁Has	-3970
▁waxbara	-3971
▁xilka	-3972
warsa	-3973
▁fice	-3974
▁gizon	-3975
▁gudaha	-3976
▁majalisa	-3977
ɓi	-3978
ለን።	-3979
ዛዝ	-3980
▁Hada	-3981
▁Sabon	-3982
ሻሻ	-3983
ላል።	-3984
mas	-3985
ዋሚ	-3986
>>	-3987
ቂት	-3988
▁Asabar	-3989
▁አባላት	-3990
▁tur	-3991
mp	-3992
▁Ala	-3993
▁dhinaca	-3994
▁kake	-3995
▁የገ	-3996
መለስ	-3997
▁gama	-3998
▁ፍርድ	-3999
▁Qaranka	-4000
ውሞ	-4001
▁bakwai	-4002
▁Kara	-4003
ssan	-4004
▁ባል	-4005
aban	-4006
▁kudu	-4007
መለከ	-4008
▁hee	-4009
▁Semalt	-4010
▁Mac	-4011
▁ኣለ	-4012
▁adag	-4013
በራዊ	-4014
ኩት	-4015
ዉን	-4016
▁Pro	-4017
▁ገበ	-4018
▁ye	-4019
idka	-4020
▁watanni	-4021
▁khi	-4022
▁Hor	-4023
▁aki	-4024
▁yimid	-4025
ሰቡ	-4026
▁Sannan	-4027
▁iyaga	-4028
▁sanin	-4029
▁zum	-4030
▁ወገ	-4031
▁ግም	-4032
▁karbi	-4033
▁dadkii	-4034
▁horumar	-4035
hn	-4036
▁Xa	-4037
▁tafiyar	-4038
▁Naira	-4039
hey	-4040
▁bayanin	-4041
▁liki	-4042
▁jirin	-4043
kata	-4044
▁ari	-4045
nywood	-4046
▁በሀ	-4047
▁ባን	-4048
▁sauka	-4049
ፍሪካ	-4050
▁መሠረት	-4051
▁yiw	-4052
▁Dawla	-4053
tter	-4054
▁Bal	-4055
▁mota	-4056
▁cikakken	-4057
▁Dadka	-4058
kra	-4059
ኩም	-4060
▁!	-4061
▁United	-4062
tra	-4063
▁ይህም	-4064
▁dowlad	-4065
▁Bara	-4066
▁Aba	-4067
▁Lafiya	-4068
staan	-4069
▁Adamawa	-4070
▁zabi	-4071
▁በግ	-4072
▁cikinsu	-4073
▁የባ	-4074
▁sauransu	-4075
▁ለማድረግ	-4076
▁maganar	-4077
▁የነበረው	-4078
ብረተ	-4079
▁Musulmi	-4080
▁po	-4081
▁በል	-4082
▁አድርጎ	-4083
▁yaqa	-4084
▁sakon	-4085
▁ዴ	-4086
▁at	-4087
ለኝ	-4088
ሮችን	-4089
tional	-4090
amij	-4091
▁ክርስቲያ	-4092
▁ገብ	-4093
▁gala	-4094
▁Ɗ	-4095
▁ተዋ	-4096
▁Abdul	-4097
ታን	-4098
▁Say	-4099
▁dawladda	-4100
ኦም	-4101
▁አሁንም	-4102
▁Maal	-4103
ናቸው	-4104
▁dul	-4105
▁shugabancin	-4106
ወር	-4107
▁Ok	-4108
ane	-4109
santa	-4110
▁Manzon	-4111
▁kad	-4112
▁ziyara	-4113
ሰት	-4114
▁ነው፤	-4115
መንግ	-4116
▁alba	-4117
▁arewacin	-4118
▁mayakan	-4119
▁Litta	-4120
ለሁ።	-4121
ላቅ	-4122
▁Mkoa	-4123
▁ሻ	-4124
▁xilli	-4125
ላማዊ	-4126
ጠብ	-4127
▁wuya	-4128
▁መልኩ	-4129
▁gane	-4130
mudug	-4131
▁shara	-4132
▁yammacin	-4133
ብራ	-4134
▁fannin	-4135
▁Jeho	-4136
▁መሳ	-4137
▁xildhiba	-4138
▁Bana	-4139
rai	-4140
▁gacanta	-4141
sanjo	-4142
▁ስሜ	-4143
ቹን	-4144
FCC	-4145
▁Cabdu	-4146
▁tabbata	-4147
▁sara	-4148
ነሱ	-4149
▁buƙa	-4150
▁kooxda	-4151
▁weerar	-4152
ትር	-4153
nal	-4154
▁karanta	-4155
▁mumm	-4156
▁misali	-4157
ካባቢ	-4158
▁masuul	-4159
▁ያላ	-4160
ርሲ	-4161
ht	-4162
▁mutun	-4163
▁Dhi	-4164
ነቱን	-4165
▁እድ	-4166
▁ጨዋ	-4167
▁waxaanu	-4168
ናይ	-4169
▁Annabi	-4170
▁Kwankwaso	-4171
▁kaliya	-4172
▁koox	-4173
▁ነበረ	-4174
▁መድ	-4175
tey	-4176
▁Cu	-4177
▁zaune	-4178
▁gaaray	-4179
▁mura	-4180
ለጠ	-4181
keeda	-4182
tooyada	-4183
ኮነ	-4184
ትም	-4185
▁sadarwa	-4186
▁tsari	-4187
▁tal	-4188
aye	-4189
ዘጋጀ	-4190
▁cas	-4191
▁madaxda	-4192
▁watsa	-4193
ሐፍ	-4194
▁እዚህ	-4195
▁maray	-4196
▁ከምዝ	-4197
▁tawagar	-4198
▁Baba	-4199
▁wala	-4200
ላሉ	-4201
▁Suka	-4202
▁ኃላፊ	-4203
ቡነ	-4204
hex	-4205
▁በማድረግ	-4206
▁wasannin	-4207
▁ፍላ	-4208
ል፤	-4209
AA	-4210
▁ይሆና	-4211
IK	-4212
▁በተጨማሪ	-4213
dani	-4214
tooda	-4215
▁woni	-4216
▁yunkurin	-4217
irar	-4218
▁cire	-4219
▁Bul	-4220
▁Ce	-4221
aso	-4222
▁alh	-4223
ሳን	-4224
▁ciniki	-4225
naamij	-4226
ubu	-4227
bal	-4228
llada	-4229
▁Inji	-4230
ሊዝ	-4231
inawa	-4232
▁mawa	-4233
ናገር	-4234
▁sanna	-4235
ደባ	-4236
▁fo	-4237
▁ትልቅ	-4238
▁ኃይል	-4239
▁karaa	-4240
▁data	-4241
▁ኢየሱስ	-4242
ff	-4243
▁kowace	-4244
▁faruwa	-4245
ሳሰ	-4246
▁mutumin	-4247
▁ይገኛ	-4248
▁Gandu	-4249
▁gaske	-4250
▁rasha	-4251
ለመ	-4252
ምህር	-4253
▁ሚኒስትር	-4254
▁Mala	-4255
▁hoga	-4256
tir	-4257
▁Rundunar	-4258
iyad	-4259
▁maada	-4260
raxmaan	-4261
▁ሲሉ	-4262
ዮም	-4263
oonka	-4264
ሃን	-4265
▁Lam	-4266
ምንት	-4267
▁rayukan	-4268
▁bunka	-4269
▁ወንጀ	-4270
▁ሄ	-4271
▁dagaalka	-4272
▁ቀደም	-4273
fta	-4274
ቃሚ	-4275
▁Alla	-4276
▁hoton	-4277
▁Max	-4278
koto	-4279
▁bala	-4280
▁makarantar	-4281
▁ግል	-4282
▁fetur	-4283
ombe	-4284
▁heli	-4285
log	-4286
▁ima	-4287
ኦሮሞ	-4288
▁በሙሉ	-4289
▁ayyuka	-4290
▁kabil	-4291
▁zauna	-4292
▁Imam	-4293
ታደ	-4294
ንካ	-4295
▁Us	-4296
▁ስለሚ	-4297
▁Tam	-4298
▁haya	-4299
▁ይልቅ	-4300
ክተር	-4301
▁cada	-4302
llaka	-4303
▁Yesu	-4304
▁qodo	-4305
adii	-4306
▁watsi	-4307
▁አልተ	-4308
▁Koriya	-4309
▁kwallo	-4310
▁እምነት	-4311
▁ከወ	-4312
beed	-4313
cyo	-4314
▁Aka	-4315
ግረ	-4316
arra	-4317
▁siyasar	-4318
huwar	-4319
▁uwa	-4320
▁መመ	-4321
cda	-4322
▁jefa	-4323
▁farkon	-4324
ታትን	-4325
ፍራ	-4326
▁wutar	-4327
doomiye	-4328
ኤርትራ	-4329
alika	-4330
▁EFCC	-4331
▁janye	-4332
▁eed	-4333
▁hotunan	-4334
ታተ	-4335
▁Pokies	-4336
▁ዮ	-4337
▁ሰባት	-4338
owga	-4339
▁dhulka	-4340
ሃት	-4341
kwas	-4342
urare	-4343
▁ግድ	-4344
▁የቆ	-4345
▁+	-4346
ቀስ	-4347
▁ከይ	-4348
▁taagan	-4349
▁Ciidanka	-4350
▁Saudiyya	-4351
▁qala	-4352
▁Galmudug	-4353
▁ምል	-4354
duna	-4355
▁mahimman	-4356
▁Obama	-4357
ጠኛ	-4358
▁tira	-4359
▁በረ	-4360
▁ግለ	-4361
▁albarka	-4362
hada	-4363
▁አንዳንድ	-4364
▁ኣሎ	-4365
ua	-4366
▁Xildhibaan	-4367
ity	-4368
▁Kamaru	-4369
▁iz	-4370
jiyay	-4371
▁Kab	-4372
▁dilay	-4373
tuurka	-4374
dio	-4375
ርና	-4376
▁qaatay	-4377
▁Soomaali	-4378
sto	-4379
▁qal	-4380
IC	-4381
▁አካል	-4382
▁Birnin	-4383
▁waji	-4384
ifa	-4385
kta	-4386
▁ፍት	-4387
IL	-4388
▁karfe	-4389
▁Qof	-4390
ዳንት	-4391
▁Jamhuuriyadda	-4392
▁abokin	-4393
▁makaman	-4394
▁gudu	-4395
▁Birtaniya	-4396
▁አቀፍ	-4397
▁መም	-4398
▁gabashin	-4399
rinta	-4400
▁motar	-4401
uguri	-4402
▁rashawa	-4403
▁wake	-4404
▁cibiyar	-4405
ሃል	-4406
▁መልካም	-4407
▁Times	-4408
▁kaa	-4409
ork	-4410
umo	-4411
anac	-4412
tid	-4413
▁ሆነው	-4414
▁Legas	-4415
▁heshiis	-4416
▁www	-4417
▁bane	-4418
ley	-4419
▁ula	-4420
▁matsalolin	-4421
IM	-4422
▁socday	-4423
▁ɗaya	-4424
▁ƙa	-4425
▁xid	-4426
▁ai	-4427
huwa	-4428
▁adadin	-4429
▁ከሌ	-4430
▁jarida	-4431
▁kartaa	-4432
▁መዝ	-4433
▁ያልተ	-4434
▁Ganduje	-4435
ayey	-4436
ሰቦች	-4437
▁mam	-4438
ከለ	-4439
▁ጫ	-4440
▁Mohammed	-4441
ጠሩ	-4442
ጠየ	-4443
▁Dad	-4444
▁daw	-4445
ES	-4446
ጋፍ	-4447
▁dadin	-4448
ዘን	-4449
ላል፡፡	-4450
▁dhexe	-4451
ስራ	-4452
finan	-4453
▁Maid	-4454
▁Somaliya	-4455
▁tak	-4456
ɓɓ	-4457
lad	-4458
▁kiwon	-4459
▁የመጀመሪያ	-4460
▁taariikh	-4461
onald	-4462
ዳጅ	-4463
▁ልጆች	-4464
▁inter	-4465
▁kim	-4466
▁karu	-4467
▁raac	-4468
▁ወንድ	-4469
Sa	-4470
ukin	-4471
ሙት	-4472
▁Kotu	-4473
▁maida	-4474
tana	-4475
▁Alka	-4476
▁magoya	-4477
▁sauki	-4478
ነገ	-4479
▁መው	-4480
▁yankunan	-4481
ብኝ	-4482
ደኛ	-4483
▁noqday	-4484
▁አስተዳደር	-4485
▁Yau	-4486
▁Maha	-4487
▁Obasanjo	-4488
bia	-4489
waad	-4490
▁ያሉት	-4491
▁auren	-4492
ምላ	-4493
ድና	-4494
▁karan	-4495
▁kasuwar	-4496
ጉም	-4497
cab	-4498
▁Bello	-4499
UM	-4500
▁፡	-4501
▁Jab	-4502
▁hogga	-4503
▁የሰው	-4504
▁Real	-4505
use	-4506
▁dheera	-4507
ጠቃላይ	-4508
bon	-4509
▁hadii	-4510
▁jirta	-4511
▁tilmaamay	-4512
ቅረብ	-4513
▁Ful	-4514
▁Yayin	-4515
▁ገለ	-4516
thiop	-4517
▁laifi	-4518
ወሓት	-4519
▁በሌላ	-4520
ለቱ	-4521
▁gacan	-4522
▁karbar	-4523
▁Rab	-4524
▁Lahadi	-4525
▁መፍት	-4526
▁አለው	-4527
▁መግለጫ	-4528
▁madaxweynaha	-4529
▁የለው	-4530
▁labari	-4531
▁Shirka	-4532
▁Ama	-4533
ባሉ	-4534
quu	-4535
▁saaray	-4536
▁Aliyu	-4537
ooyi	-4538
▁halkaasi	-4539
▁መንገ	-4540
ut	-4541
▁dadi	-4542
▁damu	-4543
kiga	-4544
ttawa	-4545
▁=	-4546
▁Hi	-4547
▁sanarwa	-4548
linyarada	-4549
▁ፍላጎ	-4550
▁danda	-4551
ድም	-4552
▁sin	-4553
▁akalla	-4554
▁ኢትዮጵያውያን	-4555
ውሮ	-4556
▁Shar	-4557
▁Maray	-4558
▁shafe	-4559
aradaha	-4560
▁Maiduguri	-4561
bobi	-4562
stay	-4563
akari	-4564
gare	-4565
ፈልግ	-4566
▁ብሔ	-4567
▁Gas	-4568
▁ጉዳዮች	-4569
▁takai	-4570
▁ፍቅር	-4571
▁ኖ	-4572
▁xoog	-4573
udur	-4574
▁ማስተ	-4575
▁kutoka	-4576
▁Suna	-4577
▁Gab	-4578
ግባር	-4579
ስማ	-4580
tarwa	-4581
▁sunayen	-4582
▁ይችላል	-4583
▁ንጉ	-4584
ፈን	-4585
▁tag	-4586
der	-4587
▁suu	-4588
▁nake	-4589
▁kayayyakin	-4590
▁ሊሆን	-4591
▁ሎ	-4592
ሳሳይ	-4593
▁ሀገ	-4594
haren	-4595
▁kalmomi	-4596
▁ትውል	-4597
ጠበቅ	-4598
antarki	-4599
▁tattoo	-4600
▁ተመል	-4601
▁vya	-4602
▁barin	-4603
ንቲ	-4604
LAH	-4605
arta	-4606
▁arrin	-4607
baan	-4608
ይታ	-4609
▁iyagoo	-4610
▁ወጥ	-4611
▁Gida	-4612
▁በተለያዩ	-4613
bawa	-4614
▁jihohin	-4615
▁biliyan	-4616
▁daina	-4617
▁መታ	-4618
anaa	-4619
▁lura	-4620
▁በቅር	-4621
▁magance	-4622
▁golaha	-4623
▁ክር	-4624
gawa	-4625
▁zamu	-4626
▁አይደለም።	-4627
▁ful	-4628
▁kii	-4629
ሪቃ	-4630
ጣሚ	-4631
▁Yin	-4632
▁Donald	-4633
uman	-4634
▁gab	-4635
▁amincewa	-4636
shaha	-4637
rafa	-4638
▁yaa	-4639
▁fay	-4640
ጠፋ	-4641
▁Kamfanin	-4642
ግዚአብሄር	-4643
▁Matsa	-4644
መና	-4645
▁kari	-4646
▁waxba	-4647
hun	-4648
ለየ	-4649
▁heen	-4650
▁ungu	-4651
▁kusoo	-4652
▁sul	-4653
▁Hakan	-4654
▁የፍ	-4655
▁ይሰ	-4656
Ha	-4657
ill	-4658
▁Ahmed	-4659
▁caca	-4660
waa	-4661
ሱም	-4662
ndi	-4663
▁መጠን	-4664
cel	-4665
ሞት	-4666
▁አሉ	-4667
▁ግንኙነት	-4668
▁Kalli	-4669
▁MDD	-4670
▁ደን	-4671
▁qaranka	-4672
▁Wasaaraha	-4673
▁Ahmad	-4674
ቋም	-4675
▁jawabi	-4676
▁ተራ	-4677
▁እውን	-4678
▁ዓላማ	-4679
ቆም	-4680
kewa	-4681
▁በጎ	-4682
▁zuba	-4683
▁zane	-4684
▁jee	-4685
▁መሆና	-4686
▁ጓ	-4687
ስተኛ	-4688
chester	-4689
▁Au	-4690
▁ውጭ	-4691
▁ፈቃ	-4692
▁jawo	-4693
▁umur	-4694
▁koyar	-4695
▁tila	-4696
▁ajiye	-4697
▁takwas	-4698
▁የሃ	-4699
▁ይቻ	-4700
est	-4701
sia	-4702
▁ማሕ	-4703
sanaa	-4704
በሉ	-4705
▁maima	-4706
ሜን	-4707
dow	-4708
▁waha	-4709
ገንዘብ	-4710
▁kafar	-4711
YA	-4712
▁Marey	-4713
▁labaad	-4714
▁አሜሪካ	-4715
▁dhacday	-4716
ለን፡፡	-4717
waxa	-4718
ticle	-4719
▁shalay	-4720
▁ያላቸው	-4721
▁masalla	-4722
oor	-4723
በላ	-4724
▁Ur	-4725
▁xidhi	-4726
ideo	-4727
▁ስልጣን	-4728
▁wadanka	-4729
ቷል።	-4730
ondon	-4731
ሳቸውን	-4732
▁ሊቀ	-4733
ttun	-4734
▁horay	-4735
▁hawa	-4736
▁iko	-4737
kika	-4738
▁WAN	-4739
▁Xaf	-4740
▁hukumomi	-4741
በራ	-4742
አት	-4743
▁hukunci	-4744
▁Ser	-4745
▁sassa	-4746
nah	-4747
HI	-4748
ርባ	-4749
▁Zaben	-4750
ረተ	-4751
▁Nan	-4752
▁ገና	-4753
fesa	-4754
▁dade	-4755
▁kawar	-4756
▁Inter	-4757
kee	-4758
▁Daya	-4759
▁halarci	-4760
▁May	-4761
▁naira	-4762
▁warbix	-4763
▁Manchester	-4764
IYA	-4765
▁sameeyay	-4766
▁asu	-4767
shabaab	-4768
▁karatun	-4769
▁fili	-4770
▁shin	-4771
▁canza	-4772
per	-4773
▁ምክር	-4774
▁hul	-4775
▁baarlamaanka	-4776
▁Shacabka	-4777
▁xal	-4778
▁farar	-4779
▁ተግባር	-4780
▁Haddii	-4781
ደርስ	-4782
▁sako	-4783
▁tarihi	-4784
▁saki	-4785
sea	-4786
▁intii	-4787
▁ፌ	-4788
▁Kur	-4789
▁Sokoto	-4790
jina	-4791
ወዳ	-4792
laahi	-4793
ና።	-4794
▁አይደለም፡፡	-4795
▁ceto	-4796
▁ወል	-4797
▁hallaka	-4798
ስቲ	-4799
▁dhowr	-4800
▁wuraren	-4801
▁ትግል	-4802
▁kyakk	-4803
▁Laa	-4804
xig	-4805
▁musulunci	-4806
ky	-4807
ld	-4808
ort	-4809
▁Ethiop	-4810
▁taimakon	-4811
▁Jehobah	-4812
▁Usman	-4813
hir	-4814
▁ቤቱ	-4815
omo	-4816
ለሁ፡፡	-4817
▁idin	-4818
taanka	-4819
ርሲቲ	-4820
ilo	-4821
▁Midoo	-4822
▁መሬት	-4823
xu	-4824
▁Kebbi	-4825
▁rikici	-4826
▁labaran	-4827
▁ተማሪ	-4828
▁dhaca	-4829
▁yayinda	-4830
▁AN	-4831
▁ሕግ	-4832
tance	-4833
▁City	-4834
ፈረ	-4835
▁መተ	-4836
▁ብዬ	-4837
▁Pe	-4838
▁xog	-4839
furin	-4840
ሶች	-4841
▁manta	-4842
▁ደቂ	-4843
aanka	-4844
▁በማስ	-4845
▁Binc	-4846
ast	-4847
▁London	-4848
▁bamban	-4849
▁ነበሩ	-4850
▁dambe	-4851
ደረሰ	-4852
▁ሕይወት	-4853
▁የሚገኙ	-4854
▁ድርጅቶች	-4855
cal	-4856
▁xisbiga	-4857
▁ሦ	-4858
▁jawabin	-4859
▁una	-4860
▁Taron	-4861
ከሰ	-4862
smi	-4863
▁umma	-4864
▁ማሳ	-4865
dood	-4866
ለፍ	-4867
balka	-4868
▁በበ	-4869
galay	-4870
▁ዞ	-4871
▁አስተያ	-4872
ጋዊ	-4873
▁ዩኒቨ	-4874
alle	-4875
▁ƙara	-4876
uruwan	-4877
▁Shari	-4878
▁ፅ	-4879
EO	-4880
▁ተጋ	-4881
ተኛው	-4882
▁በግል	-4883
እሰ	-4884
ten	-4885
▁Haw	-4886
▁Bool	-4887
▁Fira	-4888
awar	-4889
▁kora	-4890
▁shu	-4891
ክሮ	-4892
▁Kasu	-4893
▁Guddoomiyaha	-4894
▁Ranar	-4895
ɓɓe	-4896
▁ሰነ	-4897
▁sabbin	-4898
▁daray	-4899
▁Jama	-4900
▁yarin	-4901
ቷል፡፡	-4902
▁helay	-4903
▁እንደሚያ	-4904
ስትና	-4905
▁የጎ	-4906
▁shaqay	-4907
ero	-4908
▁Premium	-4909
▁Koon	-4910
ላችን	-4911
ማቸው	-4912
▁sidaas	-4913
▁cun	-4914
▁የቤተ	-4915
▁bindi	-4916
▁Com	-4917
mka	-4918
▁sug	-4919
▁>	-4920
▁nisha	-4921
▁We	-4922
▁Falas	-4923
▁አደጋ	-4924
▁yima	-4925
▁ዜና	-4926
abta	-4927
▁Zai	-4928
▁karaan	-4929
▁xiriir	-4930
▁Arrimaha	-4931
▁አስፈላጊ	-4932
▁ተደር	-4933
▁uj	-4934
▁Qaramada	-4935
▁saurar	-4936
▁gwamn	-4937
tel	-4938
▁UN	-4939
▁damuwa	-4940
ክብ	-4941
ሙያ	-4942
shee	-4943
ኸውን	-4944
▁article	-4945
▁Car	-4946
▁የዓለም	-4947
ARI	-4948
▁Kulan	-4949
▁ይታወ	-4950
▁nj	-4951
tida	-4952
▁Zar	-4953
▁iri	-4954
▁qaarkood	-4955
▁hel	-4956
▁tunani	-4957
ዘር	-4958
▁gaya	-4959
▁ካለ	-4960
ሎጂ	-4961
▁maamu	-4962
▁xor	-4963
ume	-4964
fanya	-4965
Wa	-4966
▁Gidan	-4967
▁እውነ	-4968
▁Id	-4969
መለከተ	-4970
▁መንፈስ	-4971
▁kware	-4972
▁ilaal	-4973
▁ነገሮች	-4974
▁lahaayeen	-4975
hari	-4976
▁በቅ	-4977
▁ገዳ	-4978
▁tuni	-4979
▁makaranta	-4980
ጤና	-4981
▁ali	-4982
▁ago	-4983
ከፋ	-4984
▁ጽሑ	-4985
▁bilaa	-4986
▁sanarwar	-4987
▁guri	-4988
▁maadaama	-4989
▁waɗannan	-4990
und	-4991
ጀመረ	-4992
▁shekarun	-4993
▁lantarki	-4994
▁እርምጃ	-4995
adu	-4996
▁dowlada	-4997
ድሮ	-4998
▁dhawaan	-4999
ወጥ	-5000
▁ነፍ	-5001
org	-5002
▁jagoranci	-5003
▁adalci	-5004
▁Fe	-5005
kada	-5006
▁dukkanin	-5007
▁siyaasadeed	-5008
▁nax	-5009
▁Lib	-5010
▁makiya	-5011
duu	-5012
enn	-5013
bban	-5014
▁kiyaye	-5015
▁Aminu	-5016
▁kujerar	-5017
ጠን	-5018
▁Aadan	-5019
▁ahaayeen	-5020
kaa	-5021
▁aji	-5022
ቁት	-5023
▁shaqada	-5024
▁Kun	-5025
▁አሸ	-5026
▁maw	-5027
ደርጋ	-5028
▁Kha	-5029
▁janyo	-5030
▁nazarin	-5031
▁fila	-5032
▁እንዳል	-5033
▁matasan	-5034
▁wasiir	-5035
markaana	-5036
ananan	-5037
▁Jaamac	-5038
▁ዝነ	-5039
▁ahi	-5040
▁aadan	-5041
▁caalamka	-5042
ጭት	-5043
ል፣	-5044
▁Xoo	-5045
▁gudana	-5046
▁ኢትዮጵያን	-5047
▁hau	-5048
▁አፈ	-5049
sado	-5050
▁ውጤት	-5051
dkii	-5052
issa	-5053
▁ውይ	-5054
adaan	-5055
jiyo	-5056
▁gam	-5057
▁fasaha	-5058
▁Daawo	-5059
alkacyo	-5060
▁ሥርዓት	-5061
ናል።	-5062
▁dhaqaalaha	-5063
▁qaadan	-5064
▁Aga	-5065
▁ጨዋታ	-5066
▁nasu	-5067
ሩ።	-5068
▁xigeenka	-5069
zangar	-5070
▁alkawarin	-5071
iin	-5072
▁gwiwa	-5073
EE	-5074
anci	-5075
▁taso	-5076
▁ኮሚቴ	-5077
▁Kannywood	-5078
▁ከሁ	-5079
▁rasmi	-5080
uci	-5081
▁doonto	-5082
ጣሪ	-5083
wanda	-5084
▁ስደ	-5085
▁ነጥ	-5086
▁gee	-5087
▁dhawaaq	-5088
ilin	-5089
▁ayey	-5090
▁yaran	-5091
▁ቀጥ	-5092
usay	-5093
ilmi	-5094
▁taasi	-5095
▁ምላ	-5096
▁ነኝ	-5097
ረጥ	-5098
▁tarihin	-5099
▁በመስ	-5100
ikwa	-5101
lamai	-5102
witter	-5103
ዕሊ	-5104
ረዳት	-5105
ነታቸው	-5106
ኣብ	-5107
sal	-5108
▁lalle	-5109
▁Lo	-5110
▁የተቀ	-5111
▁Jamhuriyar	-5112
ment	-5113
▁..	-5114
▁Ghana	-5115
▁xun	-5116
▁waxyaa	-5117
TO	-5118
▁On	-5119
▁Fara	-5120
▁Qor	-5121
▁ziyarci	-5122
UL	-5123
▁ይዞ	-5124
▁Pak	-5125
vo	-5126
▁Abba	-5127
ደብ	-5128
▁ngam	-5129
▁Sojojin	-5130
ገዛ	-5131
▁ቀር	-5132
▁ኩሉ	-5133
▁ስብሰባ	-5134
ዱን	-5135
▁Dhex	-5136
▁Kama	-5137
▁juya	-5138
▁markaas	-5139
▁dhintay	-5140
ደፍ	-5141
▁barazanar	-5142
▁አመት	-5143
▁farashin	-5144
FA	-5145
▁uwan	-5146
▁kas	-5147
▁lalata	-5148
▁juu	-5149
▁ጨምሮ	-5150
▁gayya	-5151
llaahi	-5152
▁safar	-5153
▁jik	-5154
daya	-5155
▁mba	-5156
▁Review	-5157
▁dalalka	-5158
▁maz	-5159
▁Er	-5160
len	-5161
▁taageer	-5162
uux	-5163
pi	-5164
yam	-5165
▁ብዝ	-5166
▁Saa	-5167
▁Mah	-5168
▁gaggawa	-5169
▁John	-5170
▁geer	-5171
▁amniga	-5172
▁ime	-5173
ኖረው	-5174
▁ቅር	-5175
▁tarayyar	-5176
ንፈ	-5177
▁caaw	-5178
ቀም	-5179
▁bunkasa	-5180
ጋሚ	-5181
ayoyin	-5182
ግና	-5183
▁waqti	-5184
ማዊ	-5185
ukil	-5186
ሊያ	-5187
▁Baa	-5188
▁hoose	-5189
madu	-5190
▁ትክ	-5191
▁በሆነ	-5192
▁alama	-5193
ርመን	-5194
▁dokoki	-5195
gey	-5196
ፈፀ	-5197
maya	-5198
ክርስቲያን	-5199
ገም	-5200
▁com	-5201
yade	-5202
▁kakakin	-5203
▁መራ	-5204
▁Tsarki	-5205
▁ngal	-5206
▁በዓ	-5207
▁sif	-5208
kura	-5209
ዘተ	-5210
ilu	-5211
haya	-5212
▁kwashe	-5213
▁Turkiga	-5214
▁booq	-5215
ካን	-5216
▁fuskanta	-5217
▁GA	-5218
▁Ham	-5219
▁Mic	-5220
ወት	-5221
▁ፎ	-5222
men	-5223
emen	-5224
▁kwamfu	-5225
▁And	-5226
▁Coo	-5227
▁ምዃ	-5228
▁lalla	-5229
▁halitta	-5230
▁አንተ	-5231
ttara	-5232
HA	-5233
▁tasiri	-5234
▁ሚሊዮን	-5235
▁kalena	-5236
▁Ade	-5237
▁ትኩ	-5238
▁hawl	-5239
yah	-5240
▁ትግ	-5241
▁qarax	-5242
▁Yusuf	-5243
▁hoto	-5244
▁taageera	-5245
▁wakh	-5246
▁ninka	-5247
▁loku	-5248
ous	-5249
▁khilaa	-5250
▁Jawa	-5251
▁ሰማ	-5252
▁ልም	-5253
▁Bee	-5254
▁harshen	-5255
▁Of	-5256
▁በሽ	-5257
▁magacaa	-5258
▁እያለ	-5259
▁anna	-5260
▁kaiwa	-5261
ንቀሳ	-5262
▁arkay	-5263
▁Cara	-5264
▁Wada	-5265
▁lu	-5266
▁ርዕ	-5267
karar	-5268
jja	-5269
▁የሁ	-5270
▁Mareykanka	-5271
▁ቀዳ	-5272
▁የውጭ	-5273
Home	-5274
▁ድጋፍ	-5275
Ru	-5276
nen	-5277
gaal	-5278
▁ɗan	-5279
▁ታሪ	-5280
dir	-5281
▁ልክ	-5282
▁qaran	-5283
▁mahimmanci	-5284
▁fafa	-5285
▁አቡነ	-5286
ባንያ	-5287
fuka	-5288
▁das	-5289
▁Waxaana	-5290
ተዋል።	-5291
▁ዝብል	-5292
ወደ	-5293
bita	-5294
▁helo	-5295
▁ቢሆንም	-5296
▁xad	-5297
▁jeeda	-5298
▁haramta	-5299
▁ayna	-5300
▁nida	-5301
▁ingan	-5302
ያንዳን	-5303
▁Xus	-5304
ስም	-5305
teed	-5306
dawa	-5307
▁ከሰ	-5308
inn	-5309
▁Pakistan	-5310
▁Kul	-5311
▁Ray	-5312
▁Littafi	-5313
▁ምኽ	-5314
▁baada	-5315
▁jini	-5316
▁እርስ	-5317
▁imani	-5318
▁mal	-5319
▁ሃገራት	-5320
▁kasancewa	-5321
▁kudancin	-5322
yadii	-5323
▁Manyan	-5324
leedyada	-5325
▁madaxweyne	-5326
eystay	-5327
HO	-5328
▁የቅ	-5329
▁wuu	-5330
▁howl	-5331
▁dhe	-5332
▁littafin	-5333
umu	-5334
ረታዊ	-5335
▁ደም	-5336
▁ከባ	-5337
bwa	-5338
ገባው	-5339
▁ndee	-5340
▁በሃ	-5341
ven	-5342
ጀት	-5343
fada	-5344
celo	-5345
▁ኦሮ	-5346
ansa	-5347
▁xukuumadda	-5348
ker	-5349
oob	-5350
ttu	-5351
ናል፡፡	-5352
▁hula	-5353
meen	-5354
badan	-5355
▁Karin	-5356
▁ነጋ	-5357
gram	-5358
▁Jana	-5359
ዱት	-5360
▁Ch	-5361
▁uusan	-5362
▁Reviewed	-5363
▁nata	-5364
▁ዚ	-5365
yun	-5366
▁ዝሓ	-5367
▁Gee	-5368
▁....	-5369
▁dalibai	-5370
ናወ	-5371
ania	-5372
▁cul	-5373
▁qaado	-5374
▁shiri	-5375
▁Kis	-5376
▁Chel	-5377
▁]	-5378
ባሪ	-5379
▁Sau	-5380
senal	-5381
▁ክብ	-5382
ሰጥ	-5383
▁kasafin	-5384
ownload	-5385
▁dawlad	-5386
▁shaqaalaha	-5387
ቶቹ	-5388
ADA	-5389
ጅት	-5390
▁ነይ	-5391
ልስ	-5392
ary	-5393
▁fashi	-5394
ቾች	-5395
▁run	-5396
ANA	-5397
mood	-5398
hini	-5399
▁bã	-5400
▁arrinta	-5401
▁ጳጳ	-5402
ጣን	-5403
ፍጠር	-5404
▁መለስ	-5405
▁haihuwa	-5406
ኖዶ	-5407
▁Nin	-5408
▁mw	-5409
▁cike	-5410
▁ክብር	-5411
▁ኑ	-5412
▁መግ	-5413
በረሰብ	-5414
mb	-5415
▁hanyoyi	-5416
▁Wasan	-5417
ንደ	-5418
▁መጻ	-5419
urub	-5420
▁SA	-5421
SS	-5422
▁::	-5423
▁jaka	-5424
ftware	-5425
▁nauyin	-5426
▁saukar	-5427
ኞቹ	-5428
abu	-5429
▁fahimci	-5430
▁ደጋ	-5431
▁sassan	-5432
cu	-5433
▁ብሓ	-5434
sanda	-5435
ጥን	-5436
▁Guud	-5437
▁mida	-5438
▁ሌላው	-5439
▁zuciya	-5440
ቡር	-5441
lina	-5442
▁Kakakin	-5443
▁ሰጥ	-5444
▁dee	-5445
▁caasi	-5446
▁xili	-5447
▁Chelsea	-5448
▁Fran	-5449
ende	-5450
▁fal	-5451
▁matsayi	-5452
gaban	-5453
hira	-5454
▁Arsenal	-5455
ሻለ	-5456
▁መላ	-5457
xoo	-5458
cuu	-5459
▁karon	-5460
ayoyi	-5461
▁ነዚ	-5462
tina	-5463
Shabaab	-5464
▁doorashada	-5465
ሰሩ	-5466
▁waliba	-5467
▁tashar	-5468
▁wallafa	-5469
▁Loka	-5470
▁Shirin	-5471
▁Salla	-5472
ደገ	-5473
▁kura	-5474
ዩን	-5475
▁ቤቶች	-5476
▁maku	-5477
weynaha	-5478
▁ɗi	-5479
▁ወረ	-5480
▁ciya	-5481
የን	-5482
▁Dam	-5483
iran	-5484
▁Deega	-5485
▁ፕሬዚ	-5486
▁sameeyo	-5487
▁ብል	-5488
▁rin	-5489
▁Dawladda	-5490
▁ለምሳሌ	-5491
▁Mali	-5492
ልቁ	-5493
▁እስካ	-5494
ላር	-5495
ፍና	-5496
▁Yemen	-5497
ikuwa	-5498
▁kyakkya	-5499
▁Ethiopia	-5500
gs	-5501
xaaf	-5502
▁Adamu	-5503
▁garkuwa	-5504
ወለ	-5505
alay	-5506
▁Sama	-5507
▁baka	-5508
ngal	-5509
az	-5510
ፈልጉ	-5511
▁xalay	-5512
▁kaal	-5513
ቃወ	-5514
▁ድርጊ	-5515
▁karar	-5516
▁max	-5517
ጀመር	-5518
▁saam	-5519
▁ስላ	-5520
▁Hadda	-5521
ጣቸው	-5522
ጣል	-5523
gari	-5524
ራዊት	-5525
▁raga	-5526
▁ብለን	-5527
▁miya	-5528
▁haske	-5529
▁rahoto	-5530
▁አማካ	-5531
▁ደብ	-5532
▁Farfesa	-5533
▁አባል	-5534
▁bede	-5535
▁iney	-5536
yukan	-5537
▁ሩ	-5538
ሞክራሲያዊ	-5539
▁ዕለት	-5540
▁waya	-5541
jji	-5542
edde	-5543
hiisa	-5544
▁dakin	-5545
▁መዋ	-5546
▁ፖለቲካዊ	-5547
▁muda	-5548
▁laab	-5549
▁Libya	-5550
▁Ib	-5551
▁ኮይኑ	-5552
▁juyin	-5553
▁sarrafa	-5554
▁Sta	-5555
▁goob	-5556
▁caafimaad	-5557
▁xeer	-5558
▁marasa	-5559
▁mallakar	-5560
ክቶ	-5561
ያቸው	-5562
ነዚህ	-5563
ቡት	-5564
▁dhima	-5565
▁basa	-5566
bus	-5567
▁የሆነው	-5568
በኛ	-5569
▁Bid	-5570
▁Con	-5571
▁kulanka	-5572
▁dhaqaale	-5573
▁naka	-5574
▁nuni	-5575
ዋት	-5576
weyne	-5577
▁danb	-5578
▁በአዲስ	-5579
▁Xar	-5580
▁akh	-5581
▁Shaq	-5582
▁siin	-5583
▁soja	-5584
ወጡ	-5585
▁እራ	-5586
▁Sul	-5587
▁መልስ	-5588
ጠረ	-5589
▁bangare	-5590
▁Kasashen	-5591
▁ፊት	-5592
▁gyar	-5593
▁qabto	-5594
oman	-5595
facebook	-5596
ካት	-5597
keen	-5598
kiti	-5599
▁labo	-5600
▁መልክ	-5601
▁አፍሪካ	-5602
▁Tarayya	-5603
ዎም	-5604
▁Aw	-5605
yee	-5606
▁ይሆ	-5607
▁የሚመ	-5608
▁Das	-5609
▁iyayen	-5610
national	-5611
▁warbaahinta	-5612
ily	-5613
▁ame	-5614
▁የሞ	-5615
▁samo	-5616
▁Banaadir	-5617
dib	-5618
▁jima	-5619
suu	-5620
▁ዝነበረ	-5621
▁moo	-5622
▁Gaalkacyo	-5623
▁kudade	-5624
ቤቱ	-5625
▁bidiyo	-5626
ghan	-5627
hing	-5628
▁wallafawa	-5629
FI	-5630
dey	-5631
ext	-5632
▁ciidan	-5633
▁malaman	-5634
▁Sanda	-5635
uuti	-5636
▁alaka	-5637
▁lau	-5638
▁Iraqi	-5639
ምባ	-5640
ገበ	-5641
▁day	-5642
▁ruk	-5643
ress	-5644
▁sheegaya	-5645
ከፈ	-5646
baya	-5647
▁ስድ	-5648
▁ቻ	-5649
AMA	-5650
rama	-5651
ds	-5652
▁qur	-5653
▁zumunta	-5654
ንታ	-5655
▁ሃይ	-5656
▁እቶም	-5657
▁weydi	-5658
▁hanku	-5659
▁Dagaal	-5660
▁gaara	-5661
▁caru	-5662
▁karfafa	-5663
ተዋል፡፡	-5664
yancin	-5665
▁minis	-5666
kku	-5667
▁ሂደት	-5668
▁ምእ	-5669
▁Bra	-5670
ariif	-5671
▁gona	-5672
▁qoraal	-5673
▁Wakil	-5674
zanga	-5675
▁Imaara	-5676
▁naga	-5677
▁yanda	-5678
▁dhaafay	-5679
ቃል	-5680
▁Alle	-5681
▁cel	-5682
▁ጅ	-5683
▁awood	-5684
▁የሚለውን	-5685
▁እውነት	-5686
▁በተለይም	-5687
▁dhismaha	-5688
▁ዙሪያ	-5689
finta	-5690
▁hayo	-5691
tes	-5692
▁sanadkii	-5693
ራሽ	-5694
▁Zango	-5695
steen	-5696
ከተማ	-5697
▁ተከት	-5698
▁jahar	-5699
▁እንደማይ	-5700
▁noon	-5701
▁dhib	-5702
▁Cookies	-5703
qol	-5704
iyoo	-5705
▁ተነ	-5706
ገማ	-5707
ክኖ	-5708
ፖር	-5709
gos	-5710
▁lahayd	-5711
▁Mataimakin	-5712
▁Jin	-5713
▁jagorancin	-5714
▁horum	-5715
▁Xisbiga	-5716
eede	-5717
ዎችና	-5718
▁ganawa	-5719
kur	-5720
ሳሰብ	-5721
▁kwanakin	-5722
▁maxaa	-5723
▁Tab	-5724
irga	-5725
▁warware	-5726
▁ምክንያቱም	-5727
▁asibiti	-5728
ኖም	-5729
ess	-5730
zil	-5731
▁raa	-5732
▁martani	-5733
▁Tarayyar	-5734
ክምና	-5735
ilar	-5736
▁bayyan	-5737
▁isticmaal	-5738
eynaa	-5739
celona	-5740
▁ነዋ	-5741
▁dega	-5742
▁ቅዱ	-5743
▁hub	-5744
ue	-5745
ባታ	-5746
▁Premier	-5747
▁wakilin	-5748
ዳት	-5749
bijin	-5750
▁tantance	-5751
▁maye	-5752
▁baaqay	-5753
▁ዝኾነ	-5754
guwar	-5755
▁Muryar	-5756
▁Sad	-5757
▁Jigawa	-5758
▁maganin	-5759
▁የካ	-5760
▁fudu	-5761
▁kyautata	-5762
ልካ	-5763
ቸዋል።	-5764
▁ጣቢያ	-5765
▁ጥረት	-5766
duunka	-5767
▁lambar	-5768
uusuf	-5769
▁maimakon	-5770
▁የቀረ	-5771
▁afar	-5772
▁gurbin	-5773
▁caalami	-5774
▁Suu	-5775
▁Ingir	-5776
▁ለመስ	-5777
▁አቅር	-5778
▁Afghan	-5779
idun	-5780
▁ቀናት	-5781
▁buƙatar	-5782
▁የኦሮሞ	-5783
▁Uu	-5784
▁komawa	-5785
ከረ	-5786
vyo	-5787
!!!	-5788
ጋይ	-5789
▁xanu	-5790
▁kwace	-5791
gine	-5792
▁soji	-5793
▁በይ	-5794
mun	-5795
▁kirk	-5796
▁xab	-5797
▁ወገን	-5798
▁ዛ	-5799
▁Makar	-5800
▁<	-5801
▁አህ	-5802
iyana	-5803
▁gurf	-5804
▁Gombe	-5805
▁barazana	-5806
▁takardar	-5807
giisa	-5808
▁zara	-5809
▁xubnaha	-5810
▁kauyen	-5811
▁Mutum	-5812
▁sune	-5813
Dan	-5814
▁ባለፈው	-5815
moja	-5816
▁የሚታ	-5817
▁Gwamnati	-5818
ንደር	-5819
▁የክ	-5820
Ya	-5821
anaha	-5822
▁Barcelona	-5823
▁bayananmu	-5824
▁yawancin	-5825
ሳስ	-5826
cra	-5827
▁ቡድ	-5828
▁ይሆናል	-5829
▁ፕሮግራ	-5830
▁im	-5831
▁ኩባንያ	-5832
▁dhaqanka	-5833
▁መጽሐፍ	-5834
▁ፖሊስ	-5835
▁በዚያ	-5836
▁ዜጎች	-5837
riga	-5838
▁አብዛ	-5839
▁shakka	-5840
ረቱ	-5841
siya	-5842
ƙin	-5843
▁taya	-5844
▁ወዳ	-5845
▁Madaxda	-5846
ንግድ	-5847
▁layi	-5848
▁Shabaab	-5849
▁ጦርነት	-5850
▁baahi	-5851
▁Afghanistan	-5852
ዓዊ	-5853
bee	-5854
uum	-5855
▁ትውልድ	-5856
▁Jiho	-5857
ትል	-5858
anayo	-5859
ɗen	-5860
▁ɗin	-5861
ሱት	-5862
kwal	-5863
▁horj	-5864
▁shafa	-5865
ዲዮ	-5866
▁የአማራ	-5867
▁Musli	-5868
▁doke	-5869
▁gobe	-5870
▁ይሆን	-5871
▁ቆይ	-5872
rica	-5873
▁dhul	-5874
▁በእር	-5875
▁muhim	-5876
▁jim	-5877
▁tsakiya	-5878
▁your	-5879
ሰበ	-5880
res	-5881
▁የፌ	-5882
▁arday	-5883
▁ገጽ	-5884
▁ስሜት	-5885
▁የአንድ	-5886
ገዳ	-5887
isho	-5888
▁Kotun	-5889
▁xi	-5890
▁አንድነት	-5891
ፎች	-5892
▁wayn	-5893
▁SU	-5894
hare	-5895
▁masha	-5896
idhaa	-5897
▁huu	-5898
▁በዓለም	-5899
▁HA	-5900
▁በመቶ	-5901
satay	-5902
▁tawayen	-5903
▁ይታ	-5904
▁kon	-5905
▁Gaskiya	-5906
▁nema	-5907
▁Sarki	-5908
▁fuskar	-5909
▁maj	-5910
▁kaloo	-5911
ግም	-5912
iiraan	-5913
hoo	-5914
ርቶዶ	-5915
▁አግ	-5916
▁መልእ	-5917
▁sansanin	-5918
low	-5919
suna	-5920
▁ክህ	-5921
▁tuu	-5922
maayo	-5923
ያዙ	-5924
ANI	-5925
▁fuskanci	-5926
▁ኬ	-5927
▁Wi	-5928
▁kamfanonin	-5929
wanci	-5930
arren	-5931
ian	-5932
▁En	-5933
con	-5934
▁Wasaare	-5935
ህና	-5936
ኪና	-5937
▁የሙ	-5938
▁saw	-5939
Ka	-5940
lob	-5941
▁Tare	-5942
▁fitowa	-5943
arsa	-5944
▁Sabuwar	-5945
ቢት	-5946
▁waf	-5947
addada	-5948
▁hotuna	-5949
▁እኮ	-5950
▁ham	-5951
▁https	-5952
▁yim	-5953
▁maki	-5954
▁samfurin	-5955
▁የዚህ	-5956
▁Siyasa	-5957
ገናኛ	-5958
▁ያው	-5959
▁ወዘተ	-5960
▁ምሁ	-5961
▁ilimin	-5962
ቀቅ	-5963
gax	-5964
▁uwar	-5965
ያይ	-5966
ile	-5967
antun	-5968
ጣው	-5969
▁raad	-5970
▁wakilan	-5971
KE	-5972
ስቴ	-5973
▁sirri	-5974
▁fir	-5975
▁Masa	-5976
▁dabi	-5977
▁Hukum	-5978
▁dumar	-5979
ላሴ	-5980
mail	-5981
▁Jan	-5982
▁Hotuna	-5983
▁ሰለ	-5984
▁sidaa	-5985
▁mukamin	-5986
▁ላለ	-5987
▁dage	-5988
gala	-5989
ቻቸውን	-5990
▁tagay	-5991
bun	-5992
▁ናት	-5993
▁Faa	-5994
▁የተነሳ	-5995
ረፍ	-5996
▁baah	-5997
▁Nura	-5998
▁caf	-5999
▁የፈ	-6000
Mu	-6001
bajo	-6002
▁Sii	-6003
▁lama	-6004
▁Yurub	-6005
▁ac	-6006
▁Kashe	-6007
▁Labari	-6008
▁tambaya	-6009
▁ድል	-6010
qaal	-6011
▁aamin	-6012
▁በአሁኑ	-6013
ishinan	-6014
▁ሆኖም	-6015
dal	-6016
▁eeg	-6017
▁ልማት	-6018
▁Kala	-6019
II	-6020
▁Osin	-6021
ሁት	-6022
▁Garba	-6023
▁dunida	-6024
ata	-6025
▁Taraba	-6026
US	-6027
▁tsoron	-6028
▁burin	-6029
▁ወጣቶች	-6030
ms	-6031
▁bixin	-6032
▁እስኪ	-6033
▁asali	-6034
ስቱ	-6035
▁የኮ	-6036
ganda	-6037
▁tsayawa	-6038
▁ይቅር	-6039
▁muhal	-6040
▁ተጫ	-6041
▁Yuusuf	-6042
▁wiil	-6043
▁ተናግረ	-6044
▁haddasa	-6045
ilaya	-6046
▁sayen	-6047
▁fee	-6048
iyaa	-6049
▁kaf	-6050
▁በሚያ	-6051
▁INEC	-6052
▁Maraykanka	-6053
cho	-6054
▁rawa	-6055
▁AB	-6056
▁wara	-6057
▁ሕገ	-6058
▁ምላሽ	-6059
▁በድ	-6060
zalika	-6061
▁--	-6062
▁nukil	-6063
▁rawar	-6064
▁wakati	-6065
▁NE	-6066
▁በዋ	-6067
▁Fati	-6068
▁siiyo	-6069
▁በዓል	-6070
▁Rasu	-6071
ARA	-6072
▁የትግራይ	-6073
▁watau	-6074
rka	-6075
▁Wadannan	-6076
▁የምና	-6077
▁ይችላሉ	-6078
linyar	-6079
▁ህይወት	-6080
▁barnaamij	-6081
ንቅ	-6082
ron	-6083
▁ተቋማት	-6084
▁hadu	-6085
▁ng	-6086
▁dora	-6087
▁tsakiyar	-6088
▁ስነ	-6089
▁Jubba	-6090
ትርያ	-6091
▁የሚቆ	-6092
ቸዋል፡፡	-6093
ሸነ	-6094
▁kallo	-6095
▁Sene	-6096
laal	-6097
▁ተቃውሞ	-6098
ቀርብ	-6099
▁Satum	-6100
▁tawaye	-6101
▁horr	-6102
▁waaji	-6103
▁kayatar	-6104
▁Nuwa	-6105
▁ተቃዋሚ	-6106
ችሁን	-6107
ingi	-6108
▁asalin	-6109
▁Laakiin	-6110
▁Okto	-6111
▁Rabi	-6112
ቅቱ	-6113
▁Shekara	-6114
ጋሪ	-6115
▁ALLAH	-6116
dooyinka	-6117
▁ተጠቃሚ	-6118
▁kisa	-6119
▁kwatan	-6120
▁koya	-6121
▁ሲኖዶ	-6122
▁shawo	-6123
▁Midoobay	-6124
▁ሰፊ	-6125
▁jireen	-6126
▁umarnin	-6127
▁agaji	-6128
iray	-6129
▁Kana	-6130
▁Dubi	-6131
dho	-6132
▁software	-6133
ንጻ	-6134
▁fura	-6135
six	-6136
ክኖሎጂ	-6137
▁Shariif	-6138
▁caafimaadka	-6139
ጮች	-6140
▁fik	-6141
oran	-6142
ሎችን	-6143
▁alam	-6144
▁ኅ	-6145
▁lasoo	-6146
▁wakar	-6147
▁Twitter	-6148
▁በጉ	-6149
▁የወያኔ	-6150
pr	-6151
ከያ	-6152
▁naxarii	-6153
▁ሺህ	-6154
▁Wararka	-6155
▁karto	-6156
maki	-6157
▁motoci	-6158
▁shacab	-6159
key	-6160
▁dacewa	-6161
▁darteed	-6162
▁ርእ	-6163
▁ግር	-6164
ከታተ	-6165
▁አገሮች	-6166
arad	-6167
▁Riki	-6168
▁Nuhu	-6169
▁kwanan	-6170
▁Bari	-6171
sato	-6172
▁jana	-6173
▁iib	-6174
▁ድሕሪ	-6175
limi	-6176
ዳታ	-6177
▁እንደነበር	-6178
▁Osinbajo	-6179
ከናወ	-6180
▁islamarkaana	-6181
ISOM	-6182
▁Fila	-6183
▁yanki	-6184
▁sababta	-6185
መነ	-6186
▁ከላይ	-6187
Hausa	-6188
▁Dowlada	-6189
▁gargadi	-6190
mon	-6191
pool	-6192
▁ammaanka	-6193
▁rauni	-6194
▁wasiirka	-6195
▁jihohi	-6196
▁ኳ	-6197
▁waree	-6198
▁ace	-6199
▁ወንጀል	-6200
▁Lalle	-6201
▁Qarax	-6202
▁እዋን	-6203
▁ዶላር	-6204
▁federaalka	-6205
.)	-6206
▁muuq	-6207
ውስ	-6208
▁አልነበረ	-6209
▁haɗin	-6210
▁wakilai	-6211
abin	-6212
▁noma	-6213
▁fahimtar	-6214
ju	-6215
bok	-6216
▁Maka	-6217
▁Jabuuti	-6218
madii	-6219
▁ƴ	-6220
▁ማለ	-6221
ikum	-6222
▁hasa	-6223
▁ተገቢ	-6224
AWO	-6225
dinawa	-6226
▁taf	-6227
▁sunyi	-6228
hone	-6229
ጥም	-6230
eegay	-6231
▁sakataren	-6232
LA	-6233
▁ብት	-6234
ulaar	-6235
▁nishadan	-6236
▁መቶ	-6237
ሰድ	-6238
▁ቢሮ	-6239
▁Yayi	-6240
ቸዋል	-6241
▁tsu	-6242
▁ጥሪ	-6243
▁Muhimman	-6244
▁saraakii	-6245
▁Xog	-6246
▁nolosha	-6247
▁intaas	-6248
▁አምባ	-6249
▁ወታደ	-6250
eysaa	-6251
▁gel	-6252
▁girman	-6253
▁Cin	-6254
▁dhici	-6255
▁diray	-6256
▁xusay	-6257
▁dambeeyay	-6258
▁SEO	-6259
▁daidaita	-6260
▁Siriya	-6261
▁wancan	-6262
luu	-6263
bana	-6264
▁ተሳ	-6265
▁የዋ	-6266
CE	-6267
▁Assa	-6268
▁bawa	-6269
▁Sada	-6270
▁የተወሰ	-6271
bera	-6272
anoma	-6273
▁የግል	-6274
ለህ	-6275
dam	-6276
▁noqdo	-6277
▁ትዕ	-6278
▁waxyaabaha	-6279
hr	-6280
▁Xildhibaanada	-6281
▁መሪዎች	-6282
zz	-6283
▁gaza	-6284
▁Ciida	-6285
▁maɓɓe	-6286
▁takardun	-6287
▁በተመለከተ	-6288
▁ምሕ	-6289
ናልባት	-6290
ብረተሰብ	-6291
▁koda	-6292
▁ወዲ	-6293
▁isticma	-6294
▁ikir	-6295
MG	-6296
▁ያን	-6297
▁Xuseen	-6298
Yar	-6299
▁አደ	-6300
liga	-6301
▁Mil	-6302
▁bisani	-6303
▁የምር	-6304
ሎስ	-6305
ከበር	-6306
ማርኛ	-6307
karu	-6308
ዘው	-6309
▁waja	-6310
▁nahay	-6311
xo	-6312
▁ክስ	-6313
▁ማርያም	-6314
▁yajin	-6315
▁Markii	-6316
▁rag	-6317
▁Dhina	-6318
ስሊ	-6319
▁ሥልጣን	-6320
sc	-6321
xaha	-6322
doonka	-6323
▁dabar	-6324
▁huo	-6325
▁Shugabannin	-6326
ዋርያ	-6327
▁ሃሳብ	-6328
▁ማንም	-6329
▁ayi	-6330
▁tasa	-6331
ኽእል	-6332
▁zafi	-6333
cy	-6334
▁qoy	-6335
▁kusk	-6336
▁በባ	-6337
▁በክ	-6338
mokra	-6339
▁tallafin	-6340
ቁር	-6341
▁raya	-6342
▁rubutu	-6343
iyyun	-6344
▁wajibi	-6345
▁By	-6346
ንጀ	-6347
ደረጉት	-6348
▁Japan	-6349
▁magacaabay	-6350
▁intaa	-6351
▁kum	-6352
▁Next	-6353
ugabar	-6354
▁by	-6355
▁የሚችል	-6356
▁ለሁ	-6357
▁Cas	-6358
▁taasoo	-6359
▁wurare	-6360
ካይ	-6361
▁boqor	-6362
▁ciwon	-6363
tsin	-6364
▁barke	-6365
▁Degmada	-6366
▁noqotay	-6367
▁መሥ	-6368
▁ዜጋ	-6369
▁aini	-6370
▁Dara	-6371
▁Dhaq	-6372
▁dhala	-6373
▁tattaunawar	-6374
▁matakai	-6375
▁dheeraad	-6376
ኮች	-6377
▁አንዳን	-6378
▁birge	-6379
▁AMISOM	-6380
▁Hassan	-6381
▁fe	-6382
▁ɗem	-6383
up	-6384
iilka	-6385
vious	-6386
ዲት	-6387
▁zaton	-6388
▁የሥራ	-6389
NAN	-6390
uruu	-6391
ገሩ	-6392
ለል	-6393
ጊዜው	-6394
taba	-6395
▁fursa	-6396
aria	-6397
▁fam	-6398
▁kono	-6399
▁ትንሽ	-6400
amoja	-6401
▁ብፁ	-6402
ዕባ	-6403
▁Nor	-6404
▁ena	-6405
▁በዚህም	-6406
▁sharciga	-6407
▁caadi	-6408
▁yaqaan	-6409
▁ተባ	-6410
▁arin	-6411
▁inoo	-6412
▁wareeg	-6413
▁KO	-6414
▁mummunan	-6415
▁የሚፈ	-6416
▁በቅርቡ	-6417
▁key	-6418
▁Sule	-6419
▁የቀድሞ	-6420
eni	-6421
▁ለብ	-6422
ikali	-6423
umm	-6424
cci	-6425
▁Akan	-6426
ምፒ	-6427
▁ጭምር	-6428
tia	-6429
▁ፍር	-6430
▁Hab	-6431
▁ፍላጎት	-6432
▁Aisha	-6433
ነበ	-6434
▁የሚሉ	-6435
▁ተጨማሪ	-6436
▁መጋ	-6437
uniyar	-6438
▁dogara	-6439
gh	-6440
▁qoray	-6441
lol	-6442
▁የዕ	-6443
▁bauta	-6444
▁magaal	-6445
AWA	-6446
vu	-6447
▁Jir	-6448
▁iyalan	-6449
del	-6450
▁xuma	-6451
RE	-6452
ቀን	-6453
▁afka	-6454
▁ሮ	-6455
በሩት	-6456
iirada	-6457
▁godiya	-6458
ለች።	-6459
▁bukatun	-6460
diin	-6461
▁ስለዝ	-6462
▁Musta	-6463
▁rahotanni	-6464
▁ክሳብ	-6465
▁ንግግር	-6466
▁ዕድል	-6467
▁መንግስቲ	-6468
▁kafofin	-6469
▁ብዛ	-6470
▁አቅም	-6471
ፍሪቃ	-6472
▁Agu	-6473
▁takun	-6474
sanay	-6475
▁Baya	-6476
talla	-6477
/]	-6478
▁ምድ	-6479
▁የሥ	-6480
▁የኦ	-6481
▁mash	-6482
▁ዩኒቨርሲቲ	-6483
▁ahna	-6484
▁አንደ	-6485
▁dangantaka	-6486
xad	-6487
▁shaidawa	-6488
ደባባይ	-6489
ኞችን	-6490
▁illa	-6491
▁mazauna	-6492
▁jec	-6493
▁carru	-6494
▁Cii	-6495
▁asusun	-6496
▁dir	-6497
▁kewa	-6498
▁አይችል	-6499
▁Fil	-6500
ƴƴ	-6501
▁ባለሙያ	-6502
ዘጋጅ	-6503
▁ɗo	-6504
▁dhii	-6505
▁mutuwa	-6506
shiryen	-6507
▁waxbarashada	-6508
ladda	-6509
▁illaa	-6510
▁ለህ	-6511
▁gali	-6512
▁የስራ	-6513
▁makiyaya	-6514
ጹም	-6515
▁ngu	-6516
▁እያሉ	-6517
▁tuntu	-6518
soon	-6519
gelin	-6520
▁jooga	-6521
▁ኣብቲ	-6522
▁gode	-6523
ሃብ	-6524
▁ይኖር	-6525
qii	-6526
ffin	-6527
▁አድርገው	-6528
arigayi	-6529
መለከት	-6530
▁Br	-6531
▁Waq	-6532
▁Gaas	-6533
▁yaro	-6534
▁jirtay	-6535
▁መጣ	-6536
ራብ	-6537
▁tam	-6538
▁karancin	-6539
▁goobta	-6540
▁Xaaji	-6541
ጣጫ	-6542
▁ኣብዚ	-6543
▁Mafi	-6544
▁Doora	-6545
▁Kismaayo	-6546
ካሄድ	-6547
▁dig	-6548
▁lamba	-6549
▁Ubangiji	-6550
▁xuquu	-6551
gbo	-6552
▁ጥቂት	-6553
▁matsaloli	-6554
▁Loo	-6555
▁አንቀ	-6556
▁dhee	-6557
▁zamanin	-6558
hud	-6559
▁DU	-6560
tini	-6561
idai	-6562
▁gidaje	-6563
▁Yobe	-6564
▁qiya	-6565
zaky	-6566
▁ታላቅ	-6567
▁gaari	-6568
▁kyautar	-6569
ዝና	-6570
▁Qur	-6571
▁kab	-6572
▁kasuwancin	-6573
eedu	-6574
▁kunar	-6575
▁ያስፈልጋ	-6576
ሕቲ	-6577
ፊያ	-6578
zania	-6579
▁wadansu	-6580
▁Chadi	-6581
▁Gudoomiyaha	-6582
ዋዕ	-6583
▁የፓ	-6584
ከፍተኛ	-6585
▁ውይይት	-6586
▁magani	-6587
▁ከው	-6588
elta	-6589
▁Disa	-6590
▁Cabdiraxmaan	-6591
▁au	-6592
▁dubban	-6593
ለስ	-6594
ንቃ	-6595
▁ገልጸ	-6596
bax	-6597
verpool	-6598
▁keenay	-6599
ልቃ	-6600
lamu	-6601
▁ሎሚ	-6602
▁koyi	-6603
▁ማስረጃ	-6604
▁hira	-6605
▁minti	-6606
ማል	-6607
▁nufi	-6608
▁Yamma	-6609
▁allah	-6610
▁ትኩረት	-6611
▁tunawa	-6612
ukola	-6613
▁all	-6614
In	-6615
▁Mis	-6616
▁Kada	-6617
ያቂ	-6618
lancin	-6619
▁Tatta	-6620
መጡ	-6621
▁ከስ	-6622
ናገራ	-6623
▁ባለው	-6624
▁talo	-6625
ኾኑ	-6626
▁keliya	-6627
▁tsere	-6628
ፕሮ	-6629
▁kungiya	-6630
▁ቁጥ	-6631
▁Cam	-6632
▁Jaridar	-6633
▁አክ	-6634
▁cal	-6635
▁አስታው	-6636
▁alheri	-6637
▁haddana	-6638
▁tayar	-6639
▁Bai	-6640
diyya	-6641
▁Good	-6642
sp	-6643
▁አስተዋ	-6644
▁ግምገማ	-6645
▁waaweyn	-6646
▁Gir	-6647
▁yari	-6648
OA	-6649
ጅም	-6650
tai	-6651
naasa	-6652
▁Nabad	-6653
▁been	-6654
)-	-6655
▁idiin	-6656
▁malamai	-6657
▁wonde	-6658
▁Tsarin	-6659
▁baxday	-6660
▁wahala	-6661
▁ገብረ	-6662
usaale	-6663
▁musanta	-6664
▁Ara	-6665
▁kulla	-6666
▁ምናልባት	-6667
▁abincin	-6668
▁gawar	-6669
▁alhakin	-6670
asho	-6671
adeed	-6672
ዲሱ	-6673
ባቸውን	-6674
▁ganga	-6675
▁Koonfur	-6676
▁ቢያ	-6677
▁uuna	-6678
▁ባለስ	-6679
▁jaddada	-6680
ላላ	-6681
▁Talla	-6682
gwar	-6683
▁ክፍለ	-6684
▁ብሄ	-6685
▁waddan	-6686
▁ይፈ	-6687
▁Bil	-6688
▁rarra	-6689
▁misalin	-6690
▁Liverpool	-6691
ዳቤ	-6692
▁ጌታ	-6693
▁boqol	-6694
▁Qab	-6695
▁kimiyya	-6696
▁ቪ	-6697
▁sauri	-6698
▁fasahar	-6699
ደርገው	-6700
▁rinj	-6701
▁xis	-6702
▁xuk	-6703
▁horta	-6704
▁ኢህአዴግ	-6705
▁አስተያየት	-6706
ks	-6707
kaan	-6708
▁አብይ	-6709
NA	-6710
▁Lagu	-6711
▁gudb	-6712
▁ciyar	-6713
▁pamoja	-6714
አዊ	-6715
▁akayi	-6716
▁ƙasashen	-6717
▁daree	-6718
ርጋ	-6719
▁sameeyey	-6720
▁ማእ	-6721
raan	-6722
eeb	-6723
▁gagar	-6724
ሕን	-6725
kuma	-6726
▁Previous	-6727
▁Dowlad	-6728
KAR	-6729
▁lallai	-6730
▁halartar	-6731
▁በቂ	-6732
▁Zi	-6733
▁wey	-6734
▁ደስ	-6735
gaad	-6736
▁dham	-6737
▁guur	-6738
▁mud	-6739
▁ኣስ	-6740
▁nazari	-6741
▁igu	-6742
▁gaarka	-6743
▁difaa	-6744
▁ሰር	-6745
xaan	-6746
unde	-6747
ቆጣጠር	-6748
▁አምላክ	-6749
▁beesha	-6750
▁Bad	-6751
▁Maryam	-6752
▁ለማሳ	-6753
▁Bashi	-6754
▁Nairo	-6755
▁ƙo	-6756
▁ባሕ	-6757
▁laamu	-6758
ብሉ	-6759
ነኛ	-6760
ፈጠረ	-6761
ታወቀ	-6762
▁አጋጣሚ	-6763
▁yimɓe	-6764
ele	-6765
▁yawun	-6766
▁Filato	-6767
▁ቱ	-6768
ለያየ	-6769
▁ak	-6770
▁lar	-6771
▁murnar	-6772
▁pa	-6773
▁ƙungiyar	-6774
▁xaalada	-6775
ኪያ	-6776
ase	-6777
▁urur	-6778
▁Africa	-6779
▁sala	-6780
stagram	-6781
▁saddex	-6782
▁አራት	-6783
▁Game	-6784
▁Qaar	-6785
▁halkan	-6786
suus	-6787
wasa	-6788
▁arri	-6789
▁maalinta	-6790
▁Kya	-6791
የም	-6792
▁አልፎ	-6793
▁fidda	-6794
▁sallah	-6795
▁Lokacin	-6796
▁ተከትሎ	-6797
ሏል።	-6798
▁gobol	-6799
▁daliban	-6800
▁saac	-6801
▁motocin	-6802
▁ጆ	-6803
xigeenka	-6804
ላቸውን	-6805
nihii	-6806
ነጋገር	-6807
▁tada	-6808
▁taimako	-6809
▁Fulani	-6810
ባረ	-6811
ሏል፡፡	-6812
▁balla	-6813
▁katin	-6814
ምራ	-6815
▁Az	-6816
▁kaw	-6817
▁ልጆ	-6818
unu	-6819
ɗɗo	-6820
▁Ilaahay	-6821
ንዱ	-6822
▁ምድር	-6823
▁ወጣት	-6824
ወድ	-6825
▁የአዲስ	-6826
iyayya	-6827
▁daren	-6828
▁ogo	-6829
▁የድር	-6830
▁አመራር	-6831
▁Boqor	-6832
▁saban	-6833
ንካራ	-6834
▁የህዝብ	-6835
▁xubno	-6836
▁online	-6837
roid	-6838
▁zur	-6839
▁ለማግኘት	-6840
ist	-6841
jiyey	-6842
amarin	-6843
▁ንብረት	-6844
▁ikirarin	-6845
▁wane	-6846
▁zaɓ	-6847
▁Abubu	-6848
linyaro	-6849
ረጋግ	-6850
rea	-6851
▁wonaa	-6852
▁siyaasadda	-6853
ታማ	-6854
ምላኽ	-6855
yahan	-6856
▁Sw	-6857
▁የተመ	-6858
▁tiro	-6859
▁dagaala	-6860
shii	-6861
ካባቢው	-6862
▁zamanta	-6863
▁dhibaatoo	-6864
▁tsakaninsu	-6865
▁dandalin	-6866
ቦችን	-6867
▁Midowga	-6868
▁አካላት	-6869
uwan	-6870
bul	-6871
uuji	-6872
▁Inuwa	-6873
▁rab	-6874
▁ኣይኮነ	-6875
▁Kafin	-6876
▁canja	-6877
▁Brazil	-6878
▁ችግሮች	-6879
▁ጉዞ	-6880
▁ajili	-6881
ble	-6882
▁Or	-6883
▁Dali	-6884
▁Ronal	-6885
ወሃት	-6886
▁ጥር	-6887
▁fudud	-6888
▁በወቅቱ	-6889
zaji	-6890
▁Bukola	-6891
▁hadalka	-6892
iaka	-6893
ስተር	-6894
▁same	-6895
▁ቶ	-6896
▁ሦስት	-6897
▁ሱዳን	-6898
▁xiriirka	-6899
ታችንን	-6900
▁Daily	-6901
▁እስካሁን	-6902
▁kuke	-6903
▁saya	-6904
▁Bulshada	-6905
▁ማስታወ	-6906
▁er	-6907
miya	-6908
dai	-6909
▁amar	-6910
▁khasa	-6911
▁Yari	-6912
▁ለኢትዮጵያ	-6913
▁asibitin	-6914
▁daji	-6915
uf	-6916
▁ወገኖች	-6917
▁Aqalka	-6918
▁saaxii	-6919
▁may	-6920
▁ware	-6921
▁kulob	-6922
▁Nairobi	-6923
ነት፣	-6924
▁Bri	-6925
▁jiran	-6926
▁በቁ	-6927
▁Hol	-6928
▁kac	-6929
▁Sakataren	-6930
taka	-6931
katawa	-6932
▁murna	-6933
ብዛ	-6934
▁ታሪካ	-6935
tul	-6936
▁awoo	-6937
las	-6938
▁tac	-6939
▁ግና	-6940
▁ተከታ	-6941
▁dakai	-6942
ሬታ	-6943
tã	-6944
ናገሩ	-6945
▁sulhu	-6946
hat	-6947
▁ጉዳት	-6948
▁deegaan	-6949
▁Booliska	-6950
ራም	-6951
▁፡፡	-6952
▁ይኸ	-6953
▁lissa	-6954
▁Buu	-6955
dihii	-6956
▁gurfanar	-6957
ቻለ	-6958
▁ሕጂ	-6959
ዝቡ	-6960
▁ያስተ	-6961
enger	-6962
geed	-6963
▁ብሔራዊ	-6964
▁ወንጌ	-6965
▁Hausawa	-6966
▁lacagta	-6967
▁wasaaradda	-6968
Ba	-6969
▁yiwuwar	-6970
tik	-6971
▁Fan	-6972
IT	-6973
ɗan	-6974
▁baza	-6975
An	-6976
▁nami	-6977
ቱት	-6978
ዞም	-6979
ውሮፓ	-6980
layen	-6981
.:	-6982
▁ኦሮሞ	-6983
▁boye	-6984
▁ሰላማዊ	-6985
▁ጃ	-6986
shooyinka	-6987
▁arimaha	-6988
▁ጥራይ	-6989
▁majalis	-6990
▁Imaaraadka	-6991
ንጉ	-6992
ችለው	-6993
▁Dab	-6994
▁dhaqaa	-6995
▁mon	-6996
▁አውሮ	-6997
ላትን	-6998
▁መሳሪያ	-6999
▁መንፈሳዊ	-7000
nayn	-7001
▁habeen	-7002
▁makwa	-7003
▁internet	-7004
▁ቀላል	-7005
▁ፕሮጀ	-7006
inaya	-7007
ሁፍ	-7008
kas	-7009
▁xus	-7010
tegor	-7011
▁ዓይ	-7012
▁magacaabo	-7013
aji	-7014
▁ዶክተር	-7015
au	-7016
▁sashen	-7017
idhaah	-7018
▁golle	-7019
▁kaddib	-7020
▁መኖ	-7021
▁ውጪ	-7022
▁መኖር	-7023
▁bool	-7024
.....	-7025
▁akai	-7026
▁ነን	-7027
▁Satumba	-7028
▁ልዕሊ	-7029
▁Idris	-7030
inayaa	-7031
warsu	-7032
omar	-7033
▁ፈቃድ	-7034
madan	-7035
▁የበላይ	-7036
▁jawaa	-7037
▁ሉ	-7038
anga	-7039
hooda	-7040
ዳዳ	-7041
▁tilasta	-7042
▁Mer	-7043
▁Neja	-7044
▁kakar	-7045
▁kungiyoyi	-7046
ዎት	-7047
ddii	-7048
▁aanan	-7049
▁Maris	-7050
▁mamaye	-7051
▁kwalla	-7052
ልኝ	-7053
▁እሱ	-7054
ቀበል	-7055
▁Lagos	-7056
▁አምስት	-7057
▁ከምዘ	-7058
ነቶች	-7059
▁ራሱን	-7060
▁Vi	-7061
▁waxya	-7062
IA	-7063
ሊክ	-7064
badii	-7065
▁Sare	-7066
mali	-7067
bayan	-7068
▁dattawa	-7069
▁የአሜሪካ	-7070
aal	-7071
▁ታው	-7072
▁ከብ	-7073
arawa	-7074
▁መድረክ	-7075
▁Qatar	-7076
▁wac	-7077
▁gabar	-7078
ማማ	-7079
▁ስታ	-7080
▁Wal	-7081
▁የመንግስት	-7082
ቅረ	-7083
▁ንዝ	-7084
▁jiha	-7085
▁Tanzania	-7086
▁Chibok	-7087
▁dac	-7088
ስትሪ	-7089
▁bangarorin	-7090
▁soomaaliyeed	-7091
biyada	-7092
masu	-7093
▁kawa	-7094
ኦሮሚያ	-7095
▁መከራ	-7096
ንበት	-7097
▁Dastuurka	-7098
▁yafi	-7099
ታወቅ	-7100
ፉን	-7101
baka	-7102
▁KUMA	-7103
▁Indiya	-7104
pin	-7105
▁Lu	-7106
▁kuwii	-7107
ለጥ	-7108
▁ሃይማኖ	-7109
▁Khey	-7110
endele	-7111
▁ዝበ	-7112
ushe	-7113
▁የአፍሪካ	-7114
▁halaka	-7115
▁Dama	-7116
ራው	-7117
መለካ	-7118
ውጣት	-7119
▁waal	-7120
ቀሳ	-7121
▁ይኖ	-7122
▁doontaa	-7123
jada	-7124
▁hogaam	-7125
▁tattara	-7126
ጥረ	-7127
▁ሳምንት	-7128
▁አመታት	-7129
ከላከያ	-7130
▁መግባ	-7131
መናን	-7132
▁ahaatee	-7133
dd	-7134
▁ጊ	-7135
▁ጥላ	-7136
ande	-7137
▁usoo	-7138
shirin	-7139
▁sanadiyyar	-7140
በይ	-7141
▁uli	-7142
▁Yaku	-7143
▁mã	-7144
▁Mayu	-7145
▁ትርጉም	-7146
▁ሆኗ	-7147
▁dalili	-7148
ሸት	-7149
▁መፈ	-7150
▁Cada	-7151
▁lamari	-7152
▁soyayya	-7153
▁ኸ	-7154
▁እንታይ	-7155
▁murabus	-7156
▁horumarka	-7157
ንጫ	-7158
▁harbe	-7159
▁tsira	-7160
▁kabilar	-7161
▁ሞት	-7162
▁haɗa	-7163
▁Kung	-7164
▁diinta	-7165
▁ኢሉ	-7166
▁kali	-7167
▁Sool	-7168
ነበረው	-7169
ደጋጋሚ	-7170
▁lah	-7171
▁መልዕ	-7172
▁sauke	-7173
▁በዚሁ	-7174
▁ባለቤት	-7175
▁sojan	-7176
ASH	-7177
raah	-7178
ካዊ	-7179
▁jab	-7180
▁ማግኘት	-7181
▁saura	-7182
cuudiga	-7183
▁kokari	-7184
▁manha	-7185
▁gelin	-7186
ነታት	-7187
▁የፀ	-7188
▁ሚዲያ	-7189
▁Inta	-7190
▁fafu	-7191
ls	-7192
▁yaalla	-7193
▁FA	-7194
eden	-7195
▁ruux	-7196
▁እንደም	-7197
▁miaka	-7198
▁bani	-7199
▁Ganac	-7200
ዮም።	-7201
fado	-7202
▁yaala	-7203
ተረ	-7204
uda	-7205
▁የጋራ	-7206
▁Xarunta	-7207
▁gin	-7208
▁hadi	-7209
▁toos	-7210
▁saxii	-7211
▁tabar	-7212
▁tsige	-7213
▁;	-7214
▁ሰል	-7215
▁ginin	-7216
▁dhiig	-7217
raal	-7218
▁kalaman	-7219
▁በስተ	-7220
▁bishii	-7221
ጥፋት	-7222
▁የኤ	-7223
▁Khay	-7224
▁የተሻለ	-7225
▁matashi	-7226
▁jecel	-7227
▁tallace	-7228
▁Oktoba	-7229
▁Cabdullaahi	-7230
▁ኦርቶዶ	-7231
miinta	-7232
▁sabis	-7233
▁የትምህርት	-7234
▁Mul	-7235
iisal	-7236
his	-7237
ongozi	-7238
▁yal	-7239
▁ትግራይ	-7240
▁bon	-7241
በቅ	-7242
በልጥ	-7243
▁tii	-7244
▁bilow	-7245
▁ግንቦት	-7246
▁milyan	-7247
▁ህዝባዊ	-7248
▁wasaaraha	-7249
ለብ	-7250
▁ሊቃ	-7251
▁iyaka	-7252
ኔት	-7253
▁goor	-7254
ews	-7255
▁ምህ	-7256
▁Tuni	-7257
▁Bisa	-7258
▁kaso	-7259
▁Qaran	-7260
ቢይ	-7261
▁dhiga	-7262
▁ከኢትዮጵያ	-7263
▁kuwaasi	-7264
ያንዳንዱ	-7265
▁saf	-7266
▁aiko	-7267
▁yaba	-7268
▁dhibaato	-7269
▁Kowa	-7270
▁እንዲሆን	-7271
ALA	-7272
▁jeer	-7273
▁ጉድ	-7274
tallace	-7275
wancin	-7276
ard	-7277
▁alwa	-7278
▁ururka	-7279
▁DAAWO	-7280
▁zarar	-7281
▁daukan	-7282
ጋና	-7283
ord	-7284
▁manufofin	-7285
▁አራ	-7286
▁free	-7287
▁Ilaah	-7288
▁Warar	-7289
▁adam	-7290
▁dana	-7291
▁ngol	-7292
▁Magana	-7293
▁የተቃ	-7294
▁Hadi	-7295
▁yiwuwa	-7296
▁Pu	-7297
▁aasa	-7298
▁የሚሰጡ	-7299
▁Dhinaca	-7300
▁Galbeed	-7301
▁Fab	-7302
▁hade	-7303
▁የንግድ	-7304
▁የበለጠ	-7305
gelinta	-7306
isay	-7307
▁Kwamitin	-7308
ክለኛ	-7309
▁ጋዜጣ	-7310
▁satar	-7311
▁Jihohi	-7312
▁Ronaldo	-7313
ise	-7314
sadeen	-7315
▁rayukansu	-7316
▁ፖ	-7317
▁Rahama	-7318
▁manoma	-7319
ጭር	-7320
▁·	-7321
wali	-7322
▁ፖሊሲ	-7323
▁albashi	-7324
▁ኖሮ	-7325
gaas	-7326
▁see	-7327
dhabo	-7328
▁daukaka	-7329
▁Download	-7330
▁jeediyay	-7331
▁kwakwal	-7332
sada	-7333
ረጋገጥ	-7334
▁ያለበት	-7335
jia	-7336
▁በዚ	-7337
tano	-7338
▁bidiyon	-7339
▁qaadeen	-7340
▁dadku	-7341
▁manufar	-7342
ኹን	-7343
▁kil	-7344
▁watu	-7345
▁አለም	-7346
ቋቋ	-7347
▁gwajin	-7348
wol	-7349
▁አቅጣጫ	-7350
▁iyakar	-7351
ጠቅላይ	-7352
▁caan	-7353
▁Hoose	-7354
ዚቃ	-7355
▁Yuni	-7356
▁talauci	-7357
▁ሰሞ	-7358
ስቶ	-7359
gida	-7360
▁rik	-7361
▁bankin	-7362
▁Islaamka	-7363
▁ግልጽ	-7364
▁ተመሳሳይ	-7365
▁ሒ	-7366
▁ይቀ	-7367
▁Tas	-7368
▁ሴት	-7369
▁እናም	-7370
▁fadawa	-7371
eelle	-7372
▁tuhumar	-7373
▁Aus	-7374
▁kariya	-7375
▁Cis	-7376
▁fari	-7377
▁xaaladda	-7378
OR	-7379
▁Ciise	-7380
▁un	-7381
▁Dole	-7382
▁ብዘይ	-7383
▁sallar	-7384
▁nishadantu	-7385
▁iga	-7386
ቷል	-7387
ዝም	-7388
skari	-7389
▁Gi	-7390
gudu	-7391
▁dinga	-7392
▁birgeka	-7393
▁ሹ	-7394
ገራቸው	-7395
bata	-7396
haha	-7397
cciyar	-7398
▁Daura	-7399
▁Hak	-7400
▁dow	-7401
▁gaadhay	-7402
ikan	-7403
laya	-7404
▁ባለመ	-7405
ርቅ	-7406
ኳይ	-7407
▁እርሱ	-7408
yey	-7409
ጥረት	-7410
ps	-7411
▁ምት	-7412
ልጣናት	-7413
▁Misa	-7414
▁more	-7415
▁ከበ	-7416
▁sarkin	-7417
▁fala	-7418
▁Hir	-7419
▁እንድት	-7420
▁ዕው	-7421
▁Wan	-7422
ዳቸው	-7423
▁mah	-7424
▁ትምህር	-7425
▁galeen	-7426
ال	-7427
ኦት	-7428
ክልሉ	-7429
▁kaka	-7430
▁ወለ	-7431
▁Dala	-7432
▁የእግዚአብሔር	-7433
ለዋ	-7434
▁daraja	-7435
araan	-7436
▁aikace	-7437
ጡን	-7438
shan	-7439
▁መክ	-7440
▁ተጨ	-7441
▁fararen	-7442
ረግ	-7443
▁Ste	-7444
ዩት	-7445
▁pro	-7446
▁quru	-7447
▁Ingiriiska	-7448
ውንም	-7449
aanta	-7450
▁Deegaanka	-7451
መቱ	-7452
▁Mam	-7453
▁Song	-7454
dhan	-7455
▁Nuur	-7456
▁VOA	-7457
ሌት	-7458
ziri	-7459
▁Sake	-7460
YO	-7461
ɗu	-7462
ያንስ	-7463
ጠቀሙ	-7464
▁ጠንካራ	-7465
▁wee	-7466
▁maar	-7467
▁የሚባል	-7468
shadaha	-7469
baar	-7470
▁dawlada	-7471
▁Ibraa	-7472
▁takwar	-7473
idha	-7474
▁share	-7475
▁ከምኡ	-7476
▁muhi	-7477
▁doortay	-7478
ren	-7479
▁Waka	-7480
ዝን	-7481
ኣት	-7482
▁Hotunan	-7483
▁ኤርትራውያን	-7484
',	-7485
▁የሚያሳ	-7486
▁fashe	-7487
DS	-7488
ዋቂ	-7489
▁ይባ	-7490
ፊዎች	-7491
▁Muka	-7492
▁kwarewa	-7493
▁በቃ	-7494
▁damba	-7495
▁ተሸ	-7496
▁xisa	-7497
▁ብዛዕባ	-7498
▁Agaasi	-7499
▁የጦር	-7500
▁ጽሑፍ	-7501
▁itace	-7502
pha	-7503
taande	-7504
ንነት	-7505
▁cola	-7506
▁kamfanoni	-7507
EG	-7508
xan	-7509
▁ጥቃት	-7510
▁አስተሳሰብ	-7511
▁Siyaasa	-7512
▁facebook	-7513
▁gargajiya	-7514
LM	-7515
▁ጥናት	-7516
ህንነት	-7517
▁gwan	-7518
▁Dhexe	-7519
▁ሃይማኖት	-7520
▁alaa	-7521
▁ፓትርያ	-7522
▁በመንግ	-7523
▁ብን	-7524
▁Sakamakon	-7525
▁unguwar	-7526
▁በመሆን	-7527
▁Kuwa	-7528
▁kori	-7529
▁Berbera	-7530
▁መነሻ	-7531
▁Hiiraan	-7532
IG	-7533
▁Majalisa	-7534
ሄዱ	-7535
qabad	-7536
▁hadarin	-7537
▁cafke	-7538
▁gun	-7539
▁Uganda	-7540
▁Bla	-7541
▁ስምምነት	-7542
▁hukunta	-7543
መስል	-7544
▁dillancin	-7545
mihii	-7546
▁xiran	-7547
pu	-7548
ሥር	-7549
▁hey	-7550
▁ነዉ።	-7551
cial	-7552
dhig	-7553
▁lin	-7554
▁ƙananan	-7555
ciil	-7556
▁yiwu	-7557
▁Rashin	-7558
ras	-7559
▁አረ	-7560
ጠኝ	-7561
▁mkoa	-7562
ስቴር	-7563
▁Babbar	-7564
▁Saraakii	-7565
▁እናንተ	-7566
▁ወይንም	-7567
pen	-7568
ጥነት	-7569
zwa	-7570
▁Alh	-7571
llahu	-7572
risti	-7573
ኹም	-7574
galka	-7575
▁amfanin	-7576
▁haatan	-7577
▁faah	-7578
▁ኣባ	-7579
gora	-7580
▁inna	-7581
ችላ	-7582
▁ግዴ	-7583
ጀመርያ	-7584
▁ሲኖዶስ	-7585
ቀርቡ	-7586
▁Zimba	-7587
aj	-7588
waxaana	-7589
▁ምንጭ	-7590
▁geeriyoo	-7591
qad	-7592
ktan	-7593
▁turai	-7594
▁miyagun	-7595
▁sakin	-7596
▁LA	-7597
▁የመስ	-7598
▁wakhti	-7599
▁bama	-7600
qada	-7601
ቴን	-7602
hiri	-7603
tira	-7604
▁nchi	-7605
ያል	-7606
anaan	-7607
▁soke	-7608
▁darajar	-7609
CO	-7610
መኑ	-7611
▁ከባድ	-7612
▁gado	-7613
lli	-7614
KAN	-7615
ዳደ	-7616
▁SO	-7617
▁hitaande	-7618
miye	-7619
▁ምዃኑ	-7620
▁Cusub	-7621
▁joogta	-7622
▁takunk	-7623
ቸኳይ	-7624
▁ሰራ	-7625
▁መጨረሻ	-7626
▁xafiiska	-7627
▁Ale	-7628
▁dhab	-7629
▁mabiya	-7630
ልድ	-7631
የሁ	-7632
▁መሣ	-7633
vid	-7634
▁መፍ	-7635
▁Maamul	-7636
▁Ɓ	-7637
▁raun	-7638
▁Amniga	-7639
▁hatsar	-7640
'.	-7641
▁የቴ	-7642
sema	-7643
ናይት	-7644
▁በራሱ	-7645
▁dibadda	-7646
gue	-7647
ግባብ	-7648
▁ገቢ	-7649
jini	-7650
saan	-7651
▁Zuwa	-7652
▁zamo	-7653
▁Wadanda	-7654
ndu	-7655
▁ሚና	-7656
▁ተን	-7657
▁kamu	-7658
▁jikkata	-7659
ቀፍ	-7660
ነሣ	-7661
▁aniga	-7662
▁yaraan	-7663
▁Taliyaha	-7664
ሳቢ	-7665
irta	-7666
▁uun	-7667
▁ƙwa	-7668
በስ	-7669
▁ይፋ	-7670
........	-7671
▁yeelay	-7672
tus	-7673
▁Qaa	-7674
Rufai	-7675
eere	-7676
ለች፡፡	-7677
▁ዘገባ	-7678
▁ግራ	-7679
▁oon	-7680
▁Sojoji	-7681
▁ኢሳ	-7682
ችኋ	-7683
▁Sp	-7684
▁የተፈ	-7685
iisaan	-7686
▁bilood	-7687
▁Spa	-7688
▁badda	-7689
▁የነበሩት	-7690
▁tamkar	-7691
▁garoonka	-7692
ቷን	-7693
KO	-7694
▁Sweden	-7695
ጽእ	-7696
▁Iraki	-7697
keena	-7698
▁kayi	-7699
▁Sadau	-7700
▁cuta	-7701
▁እንድን	-7702
▁ስህ	-7703
▁Can	-7704
finai	-7705
▁gooto	-7706
▁ጐ	-7707
▁ወስ	-7708
▁ወራት	-7709
▁ከቀ	-7710
▁ከታ	-7711
▁ከጥ	-7712
▁WANNAN	-7713
▁Jim	-7714
▁rig	-7715
br	-7716
ቦም	-7717
▁ሜዳ	-7718
▁ɗee	-7719
▁መፍትሄ	-7720
▁የድ	-7721
▁gwiwar	-7722
ቃቸው	-7723
▁ኳስ	-7724
▁cutu	-7725
▁ቅድሚያ	-7726
luck	-7727
▁markaa	-7728
▁tabbas	-7729
ላቀ	-7730
▁Duba	-7731
▁ደብዳቤ	-7732
▁በኃ	-7733
▁የሽ	-7734
▁የተባለ	-7735
sadaan	-7736
▁qorsh	-7737
▁makami	-7738
deeda	-7739
kunde	-7740
▁fafata	-7741
azi	-7742
▁xanuun	-7743
IYE	-7744
▁aike	-7745
▁kwamfuta	-7746
ለቀ	-7747
kel	-7748
amar	-7749
yuka	-7750
▁የተለየ	-7751
▁karamin	-7752
**	-7753
▁sheka	-7754
▁መስጠት	-7755
▁sukan	-7756
▁marubu	-7757
▁Xir	-7758
▁maxa	-7759
▁warar	-7760
▁እታ	-7761
▁አግኝ	-7762
▁cikinsa	-7763
adio	-7764
▁cilmi	-7765
ters	-7766
▁ከዚያም	-7767
▁ግንባታ	-7768
urorin	-7769
▁hukuma	-7770
ቃል።	-7771
▁baaq	-7772
▁gabas	-7773
▁Waxaad	-7774
▁sanadiyar	-7775
▁dinkin	-7776
▁kwatanta	-7777
naya	-7778
መልከት	-7779
▁York	-7780
▁garab	-7781
▁ganacsiga	-7782
▁ከል	-7783
▁amf	-7784
ቀድ	-7785
kha	-7786
leen	-7787
▁ሁለተኛ	-7788
▁ballan	-7789
siin	-7790
ለበት	-7791
▁asiri	-7792
▁Demo	-7793
xootiga	-7794
▁ዘርፍ	-7795
▁Najer	-7796
▁hakuri	-7797
▁taw	-7798
▁አየር	-7799
▁የነበረውን	-7800
ከው	-7801
chini	-7802
▁fagen	-7803
▁tunda	-7804
▁duniyar	-7805
▁sheegayaan	-7806
ደንት	-7807
▁ሠራ	-7808
▁Samu	-7809
▁Ubangijin	-7810
▁gwani	-7811
▁ሕይወ	-7812
ያያዘ	-7813
▁kowanne	-7814
▁ኣቦ	-7815
▁አገልግሎ	-7816
እምሮ	-7817
▁yarjejeniya	-7818
▁በዕ	-7819
▁Xub	-7820
▁Maza	-7821
ሉ፣	-7822
ደና	-7823
▁Paris	-7824
▁እንግዲህ	-7825
▁ቃለ	-7826
▁Bugu	-7827
▁ዘረ	-7828
▁musta	-7829
▁helaan	-7830
▁መሆናቸውን	-7831
▁dalkaasi	-7832
▁እት	-7833
▁tago	-7834
ሩም	-7835
▁Irin	-7836
▁baari	-7837
▁jinin	-7838
▁rabin	-7839
▁zagaye	-7840
▁zaidi	-7841
▁you	-7842
▁dogon	-7843
ጠኞች	-7844
▁Mara	-7845
UD	-7846
ርነት	-7847
amuran	-7848
▁bace	-7849
▁ያደርጋ	-7850
ና፣	-7851
ml	-7852
▁waxana	-7853
ከቱ	-7854
▁ከህ	-7855
▁hannde	-7856
▁ሬ	-7857
▁gudanarwa	-7858
▁በማን	-7859
▁Italiya	-7860
ወረ	-7861
▁Dib	-7862
idhka	-7863
▁መጀመሪያ	-7864
▁Qay	-7865
▁noqoto	-7866
▁እግዚአብሄር	-7867
▁xildhibaan	-7868
ሊት	-7869
▁Mag	-7870
▁culus	-7871
▁ተረ	-7872
▁Bidiyo	-7873
▁ZA	-7874
sheen	-7875
▁Kore	-7876
▁girgi	-7877
▁Tsaro	-7878
▁Faarax	-7879
▁Kheyre	-7880
▁asarar	-7881
▁yaushe	-7882
▁ciidamo	-7883
▁Baydhabo	-7884
▁Ol	-7885
▁ከት	-7886
▁ጥቅ	-7887
▁mudan	-7888
▁lug	-7889
▁tilma	-7890
ዳሚ	-7891
▁Tuk	-7892
▁Kayan	-7893
▁hijir	-7894
▁fyade	-7895
▁ተግባራዊ	-7896
kile	-7897
▁idon	-7898
▁Kim	-7899
▁dhexeeya	-7900
ች።	-7901
▁ሰልፍ	-7902
▁wadaa	-7903
▁የሰብ	-7904
▁Sallah	-7905
▁tambayoyi	-7906
▁የጀ	-7907
nayaa	-7908
▁ህግደፍ	-7909
▁ፕሬዝ	-7910
dooyin	-7911
▁Jubbaland	-7912
▁Madaxtooyada	-7913
KI	-7914
gada	-7915
uura	-7916
ፈልገው	-7917
▁ashirin	-7918
ዊት	-7919
▁ችሎ	-7920
▁Yakubu	-7921
▁ɓuri	-7922
▁iyaye	-7923
sil	-7924
ኝ፡፡	-7925
▁State	-7926
ቃል፡፡	-7927
▁alamar	-7928
▁kunshi	-7929
ሬሽን	-7930
▁Ayaa	-7931
▁tirada	-7932
ዥን	-7933
waito	-7934
▁ራሱ	-7935
▁gine	-7936
ማስ	-7937
fanyi	-7938
▁rubutun	-7939
ልበት	-7940
▁ኢዩ።	-7941
tegory	-7942
▁St	-7943
▁KAN	-7944
▁የእኛ	-7945
▁Mana	-7946
ሎቹ	-7947
ሪት	-7948
▁kugu	-7949
▁kuɗi	-7950
▁rabi	-7951
▁ኣምላኽ	-7952
▁ቅድሚ	-7953
▁በመጨረሻ	-7954
▁Ado	-7955
▁አብሮ	-7956
▁dukiyar	-7957
▁Haddaba	-7958
ngu	-7959
▁dhalinyarada	-7960
▁sax	-7961
▁የተባ	-7962
laanyo	-7963
bwe	-7964
▁ስቴ	-7965
▁ኮን	-7966
▁tsin	-7967
▁baadhi	-7968
dara	-7969
addamar	-7970
▁ቤተክርስቲያን	-7971
▁አመለካ	-7972
ኛል	-7973
▁ለሕ	-7974
▁kalla	-7975
▁Gudanar	-7976
ory	-7977
▁ካልእ	-7978
▁Caasi	-7979
▁tsohuwar	-7980
ነብ	-7981
▁ሰላ	-7982
▁እነዚህን	-7983
▁በአጠቃላይ	-7984
▁ማየት	-7985
▁ɗe	-7986
▁guulay	-7987
▁OO	-7988
▁malamin	-7989
ከላከል	-7990
▁ልዩነት	-7991
▁እንደገና	-7992
istar	-7993
▁weliba	-7994
▁ይችላል፡፡	-7995
▁kasancewar	-7996
▁ሁሉንም	-7997
▁እንደሌ	-7998
▁qaabka	-7999
orld	-8000
▁ህይወ	-8001
▁Goodluck	-8002
iday	-8003
▁For	-8004
▁gashay	-8005
lal	-8006
teeda	-8007
gra	-8008
▁Rep	-8009
▁Way	-8010
▁doonay	-8011
ረገ	-8012
ን፡	-8013
furta	-8014
▁daran	-8015
ሰለ	-8016
▁yiraah	-8017
▁በቤተ	-8018
▁tsayar	-8019
tanen	-8020
▁አላቸው	-8021
▁dareen	-8022
▁በተመ	-8023
waaq	-8024
▁rawaito	-8025
▁mambobin	-8026
ከባ	-8027
▁haƙ	-8028
▁India	-8029
▁ዘዴ	-8030
▁masan	-8031
ከላዊ	-8032
▁karta	-8033
uriya	-8034
ፈጸም	-8035
▁hidi	-8036
ፋን	-8037
UNA	-8038
▁Delta	-8039
▁ይመስለኛ	-8040
▁ታዲያ	-8041
▁ደቡብ	-8042
▁የሚገባ	-8043
▁Harkokin	-8044
tari	-8045
▁ለሌ	-8046
loli	-8047
ንግሊዝ	-8048
▁ወዲህ	-8049
▁manufa	-8050
▁ፕሬዚዳንት	-8051
▁wasi	-8052
▁gwamnonin	-8053
ኝ።	-8054
▁ጋዜጠኛ	-8055
▁ተማሪዎች	-8056
▁Sak	-8057
▁fid	-8058
▁maska	-8059
▁tashe	-8060
ክለ	-8061
▁ብፁዕ	-8062
▁web	-8063
▁ግንባር	-8064
▁nchini	-8065
መጥ	-8066
▁መቼ	-8067
raad	-8068
▁ግብር	-8069
▁ወይስ	-8070
▁alamu	-8071
▁ልማ	-8072
▁የምታ	-8073
▁ድምፅ	-8074
▁ክፍሎች	-8075
▁kwarar	-8076
▁nukiliya	-8077
▁lum	-8078
▁kuhu	-8079
▁Aikin	-8080
▁mallaka	-8081
▁ልን	-8082
mooyinka	-8083
kacin	-8084
▁ምኽንያ	-8085
▁yeeshay	-8086
bele	-8087
▁qoran	-8088
ነገር	-8089
▁Air	-8090
▁rum	-8091
▁aheyd	-8092
ዎ።	-8093
irƙ	-8094
ሆነው	-8095
▁ህል	-8096
▁ራስ	-8097
▁በጋራ	-8098
▁ወረዳ	-8099
▁Bas	-8100
▁Wakilin	-8101
bile	-8102
▁woo	-8103
▁ሲባል	-8104
▁Ak	-8105
▁tee	-8106
cation	-8107
▁musayar	-8108
sion	-8109
▁ainihin	-8110
▁እኩል	-8111
iland	-8112
tannin	-8113
kastoo	-8114
▁kuskure	-8115
▁ሴቶች	-8116
▁ነውና	-8117
▁wakii	-8118
▁beeg	-8119
▁tausa	-8120
kum	-8121
kaci	-8122
kiisu	-8123
▁biyaha	-8124
▁ይችላል።	-8125
▁sauraron	-8126
ddu	-8127
bola	-8128
maaciil	-8129
ሕና	-8130
ከረም	-8131
▁Xi	-8132
ካሄደው	-8133
▁hayaan	-8134
▁balan	-8135
▁Rikicin	-8136
▁Xeer	-8137
harar	-8138
▁Weer	-8139
▁musli	-8140
▁tallafawa	-8141
ጸን	-8142
▁መስመር	-8143
ጀንዳ	-8144
▁jii	-8145
saaso	-8146
▁አማራጭ	-8147
▁mku	-8148
▁ምንድ	-8149
▁kwallaye	-8150
▁ፈተና	-8151
ከም	-8152
nayo	-8153
▁adda	-8154
▁Spain	-8155
▁All	-8156
▁Sanar	-8157
▁gurin	-8158
▁Yuli	-8159
▁siiyay	-8160
UWA	-8161
miyar	-8162
▁moja	-8163
istoci	-8164
መም	-8165
ቶቻችን	-8166
▁ግጭት	-8167
▁mini	-8168
▁launin	-8169
Po	-8170
ular	-8171
▁Aure	-8172
▁የለም።	-8173
jaa	-8174
ላንድ	-8175
ገዝ	-8176
ABA	-8177
CI	-8178
▁Naz	-8179
▁አዳዲስ	-8180
▁Garin	-8181
ance	-8182
▁አባት	-8183
▁Samun	-8184
▁የደረ	-8185
▁shugabanci	-8186
▁ቅዱሳን	-8187
▁bisha	-8188
▁motsa	-8189
dhaha	-8190
▁siyaas	-8191
ሰል	-8192
▁መሰል	-8193
▁mudane	-8194
ɗɗ	-8195
ፍል	-8196
▁Biyu	-8197
▁dabbobi	-8198
▁jawaab	-8199
liwa	-8200
▁ስርዓ	-8201
anayaan	-8202
kamadda	-8203
▁ሃገራዊ	-8204
▁keentay	-8205
ልማት	-8206
▁Jos	-8207
▁ምግብ	-8208
▁ከአንድ	-8209
▁lokuta	-8210
▁የኢትዮጵያን	-8211
▁ህገ	-8212
▁Carabta	-8213
▁Hin	-8214
▁koowaad	-8215
ዳሴ	-8216
▁FI	-8217
ተኝነት	-8218
▁ባንክ	-8219
▁adduunka	-8220
▁matarsa	-8221
▁bilaabay	-8222
ttawan	-8223
Na	-8224
nes	-8225
MI	-8226
caa	-8227
▁የጠ	-8228
▁Zak	-8229
▁hur	-8230
▁kuwaasoo	-8231
▁ክፉ	-8232
▁የሕዝብ	-8233
▁xagga	-8234
▁isna	-8235
▁zura	-8236
▁datti	-8237
▁Ururka	-8238
.(	-8239
ጽን	-8240
▁EU	-8241
▁matuka	-8242
▁yeelan	-8243
▁mijinta	-8244
▁Col	-8245
▁muha	-8246
▁Khayre	-8247
▁Guddiga	-8248
▁qaataan	-8249
▁ይገል	-8250
▁́yan	-8251
▁በታች	-8252
▁maalintii	-8253
▁አላማ	-8254
▁qoys	-8255
▁ወደፊት	-8256
▁ንስ	-8257
▁የሶ	-8258
▁qaadi	-8259
▁doonayo	-8260
▁dadaal	-8261
▁kwaikwa	-8262
▁Amur	-8263
ፈለገ	-8264
▁Gaza	-8265
ካሪ	-8266
▁ቴክኖሎጂ	-8267
▁ውል	-8268
▁ሲሆን፣	-8269
▁kunya	-8270
▁shige	-8271
▁guriga	-8272
ቀደ	-8273
▁አለባቸው	-8274
ኃኒ	-8275
laye	-8276
▁Gur	-8277
▁ማር	-8278
▁tartan	-8279
ሊን	-8280
▁fah	-8281
▁horumarinta	-8282
ሊና	-8283
ራር	-8284
ስ፣	-8285
▁እምበር	-8286
▁ትክክለኛ	-8287
▁haraji	-8288
ጋዜ	-8289
▁maalmood	-8290
▁warbixin	-8291
▁ጠይ	-8292
▁qaabil	-8293
illar	-8294
▁Abo	-8295
▁Nuwamba	-8296
Da	-8297
▁ዝቅ	-8298
ርላማ	-8299
▁hed	-8300
▁አዋጅ	-8301
ምጣት	-8302
bitaalka	-8303
iti	-8304
▁gyaran	-8305
▁deegaanada	-8306
▁Qu	-8307
▁ሳያ	-8308
ናይትድ	-8309
urari	-8310
▁Bincike	-8311
bum	-8312
▁በብዙ	-8313
▁የመጣ	-8314
▁ይናገራ	-8315
▁ዳር	-8316
ቻሉ	-8317
ሬዎች	-8318
▁ፓርቲዎች	-8319
ulu	-8320
▁በተጨማሪም	-8321
ተዋል	-8322
ቸዉን	-8323
▁ተወላ	-8324
▁kirkiro	-8325
▁soomaaliya	-8326
▁farfado	-8327
ማሽ	-8328
▁አባቶች	-8329
▁weerarka	-8330
idid	-8331
▁የመጨረሻ	-8332
▁umurnin	-8333
▁dhinteen	-8334
▁azumi	-8335
AYA	-8336
▁zab	-8337
▁በቀላሉ	-8338
hayaha	-8339
▁kalli	-8340
▁up	-8341
▁dim	-8342
▁እግር	-8343
▁ባለሥ	-8344
▁iliyo	-8345
sic	-8346
tere	-8347
▁caalamiga	-8348
ጫወ	-8349
▁heshiiska	-8350
▁muhimmancin	-8351
ttar	-8352
▁Tura	-8353
▁kaasoo	-8354
ዳና	-8355
▁ሥጋ	-8356
ሰጡ	-8357
eef	-8358
▁Cad	-8359
▁mkuu	-8360
▁gobolada	-8361
▁ለወ	-8362
▁ውሃ	-8363
ምረ	-8364
▁ወሳ	-8365
▁yabo	-8366
▁ጥያቄዎች	-8367
arrun	-8368
▁isticmaala	-8369
eynuhu	-8370
▁sidan	-8371
▁Dalilin	-8372
ቅን	-8373
▁xee	-8374
▁kulmay	-8375
ሳል	-8376
USA	-8377
▁በሌሎች	-8378
▁Eng	-8379
ነን	-8380
▁Radio	-8381
▁ጠብ	-8382
▁dhisan	-8383
▁እግዚ	-8384
▁qasa	-8385
aska	-8386
▁Mutanen	-8387
ባን	-8388
▁gwagwar	-8389
▁እስር	-8390
▁Inda	-8391
▁suma	-8392
ዕል	-8393
የአ	-8394
ሐንስ	-8395
▁sarki	-8396
ኒያ	-8397
▁Il	-8398
▁Mene	-8399
Ra	-8400
tood	-8401
▁ተቀብ	-8402
kamako	-8403
iib	-8404
▁xafiis	-8405
▁yidhaah	-8406
▁ጻ	-8407
nayd	-8408
▁wak	-8409
▁gaadh	-8410
▁tallafi	-8411
ሞላ	-8412
ረታ	-8413
chan	-8414
▁መዓል	-8415
▁tawii	-8416
▁nawa	-8417
▁ባለፉት	-8418
ሳው	-8419
▁AF	-8420
▁kwada	-8421
▁{	-8422
▁abuur	-8423
▁ግለሰቦች	-8424
▁በምን	-8425
▁kawan	-8426
▁mahaifin	-8427
ትስ	-8428
▁ብርሃ	-8429
▁hoggaam	-8430
በኞች	-8431
▁ለዘ	-8432
▁tsoro	-8433
▁laraba	-8434
▁shay	-8435
▁xan	-8436
▁መኪና	-8437
▁የመንግሥት	-8438
▁zarafin	-8439
▁ዉስጥ	-8440
ishwa	-8441
▁ሰዎችን	-8442
ooɓe	-8443
fadhi	-8444
▁tabbacin	-8445
▁ال	-8446
▁ሃላፊ	-8447
▁ትናን	-8448
▁yaal	-8449
▁Gwamn	-8450
ትነት	-8451
ggal	-8452
▁suyi	-8453
▁Matasa	-8454
ሰጠው	-8455
▁pe	-8456
▁ዳይ	-8457
undi	-8458
▁ganawar	-8459
xin	-8460
kila	-8461
▁ɗoo	-8462
ቃይ	-8463
▁nooc	-8464
▁ansix	-8465
▁hakkunde	-8466
▁WO	-8467
▁xoogan	-8468
ቀመጥ	-8469
yyar	-8470
▁con	-8471
▁ዋናው	-8472
yansu	-8473
▁እንዲያው	-8474
▁ስለተ	-8475
▁መሣሪያ	-8476
▁zuciyar	-8477
ጣይ	-8478
▁ህዝቡ	-8479
▁የተባለው	-8480
▁xiriira	-8481
▁ɓee	-8482
▁ይሆናል።	-8483
▁bamu	-8484
▁goboleedyada	-8485
▁daro	-8486
▁sababbin	-8487
▁diiwaan	-8488
▁mãsu	-8489
▁Ismaaciil	-8490
▁masallacin	-8491
ለዉ	-8492
gaar	-8493
▁noqdaan	-8494
▁safiyar	-8495
ከን	-8496
▁Wakii	-8497
▁sinad	-8498
qaad	-8499
kanta	-8500
▁ሚኒስቴር	-8501
uranci	-8502
▁daure	-8503
ጠበቀ	-8504
▁ብኣ	-8505
▁Yaki	-8506
▁arga	-8507
▁gwar	-8508
▁Islama	-8509
ggan	-8510
weza	-8511
SC	-8512
uuc	-8513
amii	-8514
limu	-8515
tude	-8516
▁Eri	-8517
▁kazi	-8518
▁wado	-8519
▁ብለዋል።	-8520
eeshi	-8521
▁Masuul	-8522
▁Waqooyi	-8523
▁dhibaatada	-8524
▁Tu	-8525
▁sauƙi	-8526
▁በገ	-8527
kiisii	-8528
▁Agusta	-8529
▁Wasanni	-8530
በትና	-8531
waynaha	-8532
▁Hajiya	-8533
▁እኔም	-8534
▁እሞ	-8535
▁ይኹን	-8536
ደሰ	-8537
▁Ex	-8538
mber	-8539
▁Bala	-8540
▁ማንኛውም	-8541
▁xaalad	-8542
SU	-8543
shka	-8544
▁mudo	-8545
▁TV	-8546
tara	-8547
▁Kafa	-8548
▁dabam	-8549
▁kamuwa	-8550
▁መና	-8551
yaas	-8552
▁Fadar	-8553
▁እውነተኛ	-8554
▁lagaga	-8555
▁Heshi	-8556
▁zirga	-8557
▁ዝርዝር	-8558
▁ፕሮፌ	-8559
▁kalubalan	-8560
▁ሥነ	-8561
▁burbur	-8562
ረዱ	-8563
gaha	-8564
liyar	-8565
▁wakiltar	-8566
ብሪካ	-8567
▁ሰይ	-8568
ubli	-8569
▁dastuurka	-8570
▁wararka	-8571
▁sayarwa	-8572
ser	-8573
dama	-8574
▁qorshaha	-8575
!)	-8576
cto	-8577
▁ስደተኛ	-8578
▁ከሌሎች	-8579
▁garan	-8580
ውነት	-8581
▁gey	-8582
▁gamsu	-8583
cada	-8584
▁ዛሬም	-8585
satada	-8586
▁Zimbabwe	-8587
].	-8588
▁dur	-8589
▁በመቀ	-8590
▁adiga	-8591
▁wanke	-8592
ዶም	-8593
▁rabu	-8594
▁David	-8595
▁zi	-8596
▁Daw	-8597
▁Guddoomiye	-8598
ለጋ	-8599
qaan	-8600
RA	-8601
deg	-8602
▁laka	-8603
▁Hakika	-8604
▁Shiga	-8605
doodu	-8606
EY	-8607
ማም	-8608
▁ደረ	-8609
▁KULM	-8610
▁kata	-8611
▁farax	-8612
▁አሉ፡፡	-8613
▁gashi	-8614
eyda	-8615
▁shima	-8616
,,	-8617
eele	-8618
▁ƙarin	-8619
bn	-8620
▁tambaye	-8621
▁shawarwari	-8622
በተ	-8623
had	-8624
bili	-8625
▁fiir	-8626
ርኩ	-8627
▁ንግድ	-8628
ገለጸ	-8629
eneo	-8630
kaas	-8631
▁teku	-8632
▁muhalli	-8633
win	-8634
▁መገ	-8635
▁ዘላ	-8636
▁kishin	-8637
ናንተ	-8638
▁if	-8639
ፖለቲከ	-8640
▁cus	-8641
▁rayuka	-8642
ርትራዊ	-8643
▁Kawo	-8644
▁noqona	-8645
▁goobaha	-8646
▁gila	-8647
▁dhaxeeya	-8648
faafinta	-8649
ጠይቅ	-8650
amari	-8651
▁ጳው	-8652
▁ከምዚ	-8653
ለፈ	-8654
▁ሓድ	-8655
ቋል።	-8656
ዋቸውን	-8657
tukar	-8658
▁Bush	-8659
▁qabo	-8660
▁Merkel	-8661
▁Yahaya	-8662
▁niyyar	-8663
ያተ	-8664
▁Um	-8665
jiga	-8666
ካሄደ	-8667
ው፣	-8668
lor	-8669
▁ñal	-8670
▁Osun	-8671
▁Disamba	-8672
Al	-8673
▁wanan	-8674
▁KULMIYE	-8675
▁kooxaha	-8676
እቲ	-8677
ገልግሎት	-8678
ማሌ	-8679
▁Fo	-8680
▁kuf	-8681
▁እዚያ	-8682
ናገሩት	-8683
▁Ekiti	-8684
▁Jose	-8685
▁ማለትም	-8686
sas	-8687
▁zal	-8688
▁baad	-8689
▁dhawr	-8690
▁gwada	-8691
▁tambayar	-8692
▁Lin	-8693
▁budur	-8694
▁kwato	-8695
ጻሚ	-8696
fisa	-8697
▁ዘመቻ	-8698
bas	-8699
tch	-8700
▁ካር	-8701
▁ማድረ	-8702
▁Kogi	-8703
▁ቲ	-8704
ራንስ	-8705
▁ብፍ	-8706
▁Red	-8707
▁ree	-8708
pata	-8709
uduu	-8710
▁አቋም	-8711
ደበ	-8712
▁^	-8713
▁የዛሬ	-8714
essi	-8715
▁ዋንጫ	-8716
▁hamay	-8717
▁ፕሮግራም	-8718
ምሩ	-8719
▁መፅ	-8720
▁የሚጠ	-8721
garen	-8722
▁ሕቶ	-8723
▁fog	-8724
▁toban	-8725
▁dhawaaqay	-8726
ዕኖ	-8727
nge	-8728
▁shinka	-8729
▁talabijin	-8730
▁isbe	-8731
▁Beesha	-8732
▁taariikhda	-8733
ስል	-8734
ሌክት	-8735
▁ኑሮ	-8736
ence	-8737
▁Waf	-8738
▁ያላቸውን	-8739
▁መቆ	-8740
▁ወላ	-8741
▁Fim	-8742
▁Wasiirada	-8743
usse	-8744
▁ብርሃን	-8745
▁zubar	-8746
▁shaidar	-8747
▁makarantun	-8748
▁ነጥብ	-8749
▁ኣሎ።	-8750
▁horar	-8751
▁tarin	-8752
▁diyaaradaha	-8753
tiin	-8754
▁Jag	-8755
▁sharaf	-8756
pro	-8757
bb	-8758
ነበሩ	-8759
ቲት	-8760
▁ስለዚ	-8761
▁Dog	-8762
cas	-8763
▁ንኣ	-8764
▁አቋ	-8765
dada	-8766
ction	-8767
ደረጃ	-8768
▁ምርት	-8769
▁baan	-8770
ዝግ	-8771
▁አነ	-8772
▁Fas	-8773
site	-8774
▁dhigo	-8775
ወያ	-8776
▁በእርግጥ	-8777
▁ayyana	-8778
▁Democra	-8779
▁ውሽ	-8780
▁ኢትዮ	-8781
ለቅ	-8782
▁Harin	-8783
▁Kati	-8784
ሬን	-8785
ዳም	-8786
▁ዱ	-8787
▁በፈ	-8788
onge	-8789
▁qorshe	-8790
gix	-8791
▁በግልጽ	-8792
▁ሐሳብ	-8793
▁dambeyn	-8794
▁ጥበብ	-8795
▁Waxbara	-8796
▁የሚገኘው	-8797
▁Tsakiya	-8798
▁kalubale	-8799
▁ተል	-8800
mud	-8801
king	-8802
▁ባህል	-8803
▁የመሳሰ	-8804
▁እንደሚችል	-8805
▁Euro	-8806
▁dalilan	-8807
ይህ	-8808
▁safe	-8809
▁Xafiiska	-8810
ግሩ	-8811
▁Garoo	-8812
ሳካ	-8813
aura	-8814
▁አለማ	-8815
▁namiji	-8816
▁magaalooyinka	-8817
ዎቹን	-8818
joog	-8819
weli	-8820
▁Yahu	-8821
ፕሬ	-8822
ሻገር	-8823
▁mush	-8824
▁የሆኑት	-8825
eynayo	-8826
▁Rating	-8827
▁Cismaan	-8828
▁eedeeyay	-8829
gn	-8830
በረታ	-8831
ሕአዴግ	-8832
▁cib	-8833
▁kera	-8834
▁jarra	-8835
rah	-8836
▁wiy	-8837
▁Waziri	-8838
▁ይሆናል፡፡	-8839
ፈጠረው	-8840
uuliyiin	-8841
ሴት	-8842
▁xitaa	-8843
▁የለም፡፡	-8844
▁Taa	-8845
▁በመጀመሪያ	-8846
▁Shabee	-8847
▁Shekaru	-8848
abe	-8849
▁todo	-8850
oow	-8851
▁መንእሰ	-8852
▁የሚችሉ	-8853
ይቶ	-8854
▁Haba	-8855
▁እንደማ	-8856
▁Yah	-8857
▁ሥርዓ	-8858
▁wadata	-8859
▁ኔ	-8860
ደራል	-8861
መዘ	-8862
ገኙት	-8863
▁ቢያንስ	-8864
▁kwanciyar	-8865
▁የዲ	-8866
▁ገበያ	-8867
▁dug	-8868
▁በቲ	-8869
idii	-8870
tiri	-8871
▁ጥበቃ	-8872
▁tarta	-8873
▁Sakkwa	-8874
▁bilaab	-8875
▁dalilai	-8876
▁dakile	-8877
▁cikinta	-8878
ጉት	-8879
▁ይላ	-8880
▁Aiki	-8881
▁Tari	-8882
▁hiki	-8883
ministan	-8884
ቅርብ	-8885
▁ɓen	-8886
▁መሰረታዊ	-8887
▁́a	-8888
▁ኢሳያስ	-8889
▁joogaan	-8890
mayn	-8891
▁አምላ	-8892
▁hanna	-8893
▁በውጭ	-8894
▁auku	-8895
▁ምሳሌ	-8896
▁galo	-8897
▁Masana	-8898
mata	-8899
▁kolin	-8900
▁ɗemngal	-8901
qab	-8902
▁አድራ	-8903
▁Khal	-8904
▁Gabas	-8905
ች፡፡	-8906
▁kaura	-8907
▁yawon	-8908
UT	-8909
▁Iv	-8910
▁ክልተ	-8911
▁ምስክር	-8912
▁lardin	-8913
▁`	-8914
▁Apr	-8915
▁Qodo	-8916
▁Sauran	-8917
▁Kulmiye	-8918
yaani	-8919
▁Sidaas	-8920
lolin	-8921
▁ወጪ	-8922
dare	-8923
▁ሀሳብ	-8924
ጊያ	-8925
▁ኢዩ	-8926
▁dire	-8927
▁በመጠቀም	-8928
▁Dhanka	-8929
ጠመ	-8930
▁ምርመራ	-8931
▁yimaad	-8932
ጅቱ	-8933
ዎች፣	-8934
▁Lau	-8935
▁Caafi	-8936
cewar	-8937
ungum	-8938
▁ነፃነት	-8939
▁video	-8940
ወገድ	-8941
▁መሸ	-8942
▁zunu	-8943
▁Turkiya	-8944
ርካ	-8945
ፈላለ	-8946
soshin	-8947
▁socota	-8948
▁haweenka	-8949
ላለፍ	-8950
▁Shu	-8951
▁ደስታ	-8952
miin	-8953
▁Janairu	-8954
ገብር	-8955
▁ይላል	-8956
▁ahan	-8957
▁lada	-8958
▁saaro	-8959
fanyika	-8960
▁rinjaye	-8961
ርብ	-8962
hab	-8963
▁yunwa	-8964
ፕሎ	-8965
▁የሐ	-8966
ሆናቸው	-8967
▁ዘለዎ	-8968
▁የማያ	-8969
▁በመሆኑም	-8970
shu	-8971
▁የዜ	-8972
stan	-8973
▁manya	-8974
haan	-8975
▁Men	-8976
▁bakun	-8977
▁horey	-8978
▁የገንዘብ	-8979
▁hadari	-8980
▁ቀይ	-8981
▁Abun	-8982
▁Kiwon	-8983
▁timid	-8984
joo	-8985
ሳተፍ	-8986
▁Siilaanyo	-8987
sur	-8988
▁የማስ	-8989
▁ድርጊት	-8990
shadii	-8991
▁ታስ	-8992
▁አና	-8993
ASA	-8994
▁gudbin	-8995
▁sukayi	-8996
▁ብለዋል፡፡	-8997
▁littatta	-8998
jab	-8999
▁Win	-9000
▁እድል	-9001
▁fann	-9002
▁yeeshee	-9003
▁dhoo	-9004
▁yarinya	-9005
▁kyakkyawan	-9006
▁መቅ	-9007
▁ምዕራ	-9008
▁ያቀረ	-9009
▁kwayoyin	-9010
▁ሁለቱ	-9011
joji	-9012
▁sakamako	-9013
ባህ	-9014
ust	-9015
▁መዳ	-9016
▁horo	-9017
▁taageero	-9018
ነቅ	-9019
▁እስረ	-9020
▁ƙoƙ	-9021
▁Labada	-9022
▁Mawa	-9023
▁sansan	-9024
ጨት	-9025
▁cam	-9026
▁ስፍራ	-9027
▁ያደረገ	-9028
siinta	-9029
▁tababar	-9030
▁ፋይ	-9031
▁መጻሕ	-9032
▁ዝኣ	-9033
▁Bada	-9034
▁Umma	-9035
▁ተጠያቂ	-9036
▁rukunin	-9037
መለሱ	-9038
▁daura	-9039
▁jinya	-9040
▁magu	-9041
▁salon	-9042
ተሓ	-9043
ሉበት	-9044
▁qu	-9045
▁zaku	-9046
▁አመራሮች	-9047
▁ንሓ	-9048
▁እነሱ	-9049
▁diin	-9050
aw	-9051
zza	-9052
▁ፍሬ	-9053
ther	-9054
▁teb	-9055
▁Kono	-9056
▁siiyey	-9057
ግለጽ	-9058
▁ሀብት	-9059
▁yadu	-9060
▁socdo	-9061
▁kutoa	-9062
ጀመሩ	-9063
▁በተደጋጋሚ	-9064
▁iyagu	-9065
hararren	-9066
▁kord	-9067
omita	-9068
▁cancan	-9069
▁ቅን	-9070
zane	-9071
ጀመረው	-9072
▁taken	-9073
ማረ	-9074
▁መመሪያ	-9075
▁Kooxda	-9076
▁bashin	-9077
▁tsananin	-9078
▁Falasdinawa	-9079
▁katir	-9080
▁mahaifiyar	-9081
▁ለት	-9082
zara	-9083
▁fassara	-9084
በታል።	-9085
▁ስለመ	-9086
yadda	-9087
▁Islaam	-9088
▁caasimadda	-9089
funzi	-9090
▁Diya	-9091
▁ኦርቶዶክስ	-9092
ሾች	-9093
▁መረ	-9094
▁Israa	-9095
▁ማይ	-9096
▁winn	-9097
▁አለ፡፡	-9098
tua	-9099
▁ዓም	-9100
▁Ake	-9101
▁Augu	-9102
▁tsanani	-9103
▁AD	-9104
▁አጀንዳ	-9105
sandan	-9106
ሻሻል	-9107
LE	-9108
▁hase	-9109
▁ግምገማዎች	-9110
▁laifuka	-9111
▁meelaha	-9112
▁nden	-9113
▁ƙirƙ	-9114
▁ጎን	-9115
sama	-9116
▁የኢኮኖሚ	-9117
▁doonin	-9118
▁Washing	-9119
ሴቶች	-9120
▁ኢኮኖሚ	-9121
▁makonni	-9122
ttoo	-9123
▁Walla	-9124
▁በከፍተኛ	-9125
▁inganci	-9126
ኣይ	-9127
መንት	-9128
ርስዎ	-9129
gilar	-9130
ታም	-9131
ፊው	-9132
ነር	-9133
▁ዝመ	-9134
asay	-9135
▁haf	-9136
tuwan	-9137
▁Buka	-9138
▁reshen	-9139
dee	-9140
▁Kula	-9141
ጦች	-9142
ayn	-9143
▁Wakar	-9144
ዳል	-9145
ling	-9146
▁የሚተ	-9147
arara	-9148
▁Baar	-9149
▁Hana	-9150
▁red	-9151
▁Free	-9152
im	-9153
ንፃ	-9154
▁ተቋም	-9155
.,	-9156
▁buk	-9157
▁አገዛዝ	-9158
ቋል፡፡	-9159
▁nidaamka	-9160
ቋሚ	-9161
▁muca	-9162
▁xiray	-9163
ቁን	-9164
▁Lan	-9165
▁ለዚህም	-9166
▁ታሪካዊ	-9167
▁hadana	-9168
ጠባ	-9169
eno	-9170
ወጣው	-9171
▁ተዘ	-9172
▁መጠቀም	-9173
▁kalmar	-9174
▁bandhigay	-9175
▁marti	-9176
▁mustaq	-9177
ወራ	-9178
▁ኢና	-9179
▁SHI	-9180
▁ተጠቅ	-9181
▁አገራት	-9182
▁Binciken	-9183
▁talakawa	-9184
ርእ	-9185
bel	-9186
▁ሰነድ	-9187
▁degaanka	-9188
kasta	-9189
▁dhacdo	-9190
▁ቃላት	-9191
▁leda	-9192
▁በቀጥታ	-9193
irro	-9194
▁baar	-9195
oore	-9196
buwal	-9197
▁ida	-9198
▁gawa	-9199
በን	-9200
inayay	-9201
▁የኤርትራ	-9202
▁Zariya	-9203
▁kulawa	-9204
▁isagu	-9205
▁istaa	-9206
ሳችን	-9207
▁daf	-9208
▁የያዘ	-9209
yanta	-9210
ደድ	-9211
Lab	-9212
ስተዋ	-9213
▁Cus	-9214
▁መፍትሔ	-9215
▁Washington	-9216
▁huj	-9217
▁ይዘው	-9218
asiga	-9219
▁Gala	-9220
▁እነርሱ	-9221
▁kuhusu	-9222
▁Ibraahim	-9223
▁ሣ	-9224
▁የዓ	-9225
guzi	-9226
▁ተገል	-9227
ቀበ	-9228
ባችን	-9229
▁oda	-9230
▁ተሳት	-9231
▁kanka	-9232
▁laawol	-9233
▁የጉ	-9234
▁Yara	-9235
▁ለማለት	-9236
▁ተደርጎ	-9237
▁alamun	-9238
▁ጾ	-9239
▁njo	-9240
▁ሰራዊት	-9241
aliban	-9242
▁tsarki	-9243
▁mwana	-9244
▁tasowa	-9245
▁kwanza	-9246
▁geeriyooday	-9247
▁የግን	-9248
በራት	-9249
▁Zakzaky	-9250
oobe	-9251
▁ሜትር	-9252
▁baraka	-9253
አን	-9254
▁ኵ	-9255
▁KMG	-9256
▁hii	-9257
▁ተቀባ	-9258
▁awa	-9259
▁Reer	-9260
▁Xukuumada	-9261
ቆር	-9262
▁ቀጠ	-9263
▁ከኢ	-9264
▁ley	-9265
▁yaabaa	-9266
▁albashin	-9267
ኘው	-9268
ቋቋም	-9269
ummu	-9270
▁ብሔር	-9271
▁Maxaa	-9272
▁mafita	-9273
KU	-9274
▁ሰም	-9275
▁Matan	-9276
aalo	-9277
▁wasii	-9278
aba	-9279
ክን	-9280
▁ይበ	-9281
▁Aqoon	-9282
naayeen	-9283
▁bixi	-9284
ዛቤ	-9285
WAR	-9286
hen	-9287
▁Tin	-9288
▁አለ።	-9289
▁sanyi	-9290
ሁድ	-9291
ሠሩ	-9292
ሯል።	-9293
unsu	-9294
▁taga	-9295
AMB	-9296
▁DF	-9297
▁mji	-9298
▁ልምድ	-9299
▁ብዙሕ	-9300
▁dira	-9301
▁haihuwar	-9302
▁ጸጋ	-9303
ላችንም	-9304
▁suga	-9305
▁gaggauta	-9306
▁ጄ	-9307
kamai	-9308
▁waad	-9309
▁ምክትል	-9310
▁fuska	-9311
ኖረ	-9312
▁App	-9313
▁kita	-9314
▁maan	-9315
▁መንግሥታት	-9316
▁ሆይ	-9317
▁በይፋ	-9318
ladii	-9319
▁khilaaf	-9320
▁ትእ	-9321
▁aiy	-9322
▁Prof	-9323
▁kore	-9324
▁ያሉትን	-9325
▁caruur	-9326
▁Kasuwanci	-9327
TT	-9328
ሰና	-9329
manka	-9330
cc	-9331
▁rushe	-9332
▁Arewacin	-9333
ዬን	-9334
▁Sanatan	-9335
▁ለራ	-9336
▁akwa	-9337
▁fahimta	-9338
▁shugabar	-9339
▁injin	-9340
▁ድርሻ	-9341
eeraha	-9342
▁beelaha	-9343
▁Saw	-9344
isin	-9345
▁ngo	-9346
▁ኪዳን	-9347
▁waayay	-9348
▁biyayya	-9349
▁saaran	-9350
So	-9351
ርም	-9352
▁በበኩ	-9353
▁ግዴታ	-9354
▁kwarai	-9355
gogi	-9356
▁አሉ።	-9357
▁buux	-9358
▁zanta	-9359
▁Hon	-9360
▁Warbaahinta	-9361
▁ገሊ	-9362
▁gas	-9363
▁ስልጣ	-9364
▁kaasi	-9365
▁ንኽ	-9366
abar	-9367
▁km	-9368
▁dawowa	-9369
sira	-9370
▁Dun	-9371
▁DUBA	-9372
▁kocin	-9373
▁Amfani	-9374
▁Abubuwan	-9375
▁nii	-9376
ashiga	-9377
▁tekun	-9378
▁jiri	-9379
▁ketare	-9380
ves	-9381
ship	-9382
▁littafi	-9383
▁Magu	-9384
▁አህመድ	-9385
▁ውድድር	-9386
▁natii	-9387
▁dawa	-9388
lihii	-9389
▁kame	-9390
▁የሚከተ	-9391
ሮን	-9392
▁የወጣ	-9393
▁£	-9394
▁sakan	-9395
▁xoogga	-9396
ፋይ	-9397
▁Goo	-9398
▁ካልተ	-9399
ጋንዳ	-9400
▁ዘው	-9401
▁aza	-9402
▁lix	-9403
▁dibna	-9404
kina	-9405
▁Erdo	-9406
▁kila	-9407
▁ሀብ	-9408
▁በሥ	-9409
▁Tawa	-9410
▁toddo	-9411
▁ተበ	-9412
▁Yaya	-9413
▁Fabra	-9414
▁jawaabay	-9415
ምህርቲ	-9416
▁	-9417
a	-9418
i	-9419
n	-9420
u	-9421
d	-9422
k	-9423
r	-9424
o	-9425
s	-9426
e	-9427
y	-9428
m	-9429
h	-9430
t	-9431
l	-9432
b	-9433
w	-9434
g	-9435
ን	-9436
c	-9437
.	-9438
,	-9439
ት	-9440
f	-9441
A	-9442
j	-9443
በ	-9444
የ	-9445
ው	-9446
ም	-9447
ር	-9448
መ	-9449
x	-9450
ል	-9451
ስ	-9452
ለ	-9453
z	-9454
አ	-9455
S	-9456
ይ	-9457
M	-9458
እ	-9459
'	-9460
ተ	-9461
ነ	-9462
ብ	-9463
ያ	-9464
ና	-9465
q	-9466
K	-9467
D	-9468
ደ	-9469
ግ	-9470
ገ	-9471
-	-9472
ች	-9473
ማ	-9474
ከ	-9475
B	-9476
፡	-9477
ላ	-9478
ድ	-9479
ረ	-9480
I	-9481
N	-9482
ራ	-9483
0	-9484
ሰ	-9485
ባ	-9486
ታ	-9487
1	-9488
ወ	-9489
W	-9490
T	-9491
H	-9492
ሚ	-9493
C	-9494
ክ	-9495
2	-9496
G	-9497
ህ	-9498
።	-9499
ቀ	-9500
Y	-9501
ጥ	-9502
p	-9503
:	-9504
R	-9505
ሳ	-9506
ጠ	-9507
ፍ	-9508
ቅ	-9509
ካ	-9510
ዝ	-9511
L	-9512
ዳ	-9513
J	-9514
ሉ	-9515
ቸ	-9516
ሆ	-9517
ጋ	-9518
)	-9519
ፈ	-9520
F	-9521
(	-9522
ዘ	-9523
P	-9524
O	-9525
ሪ	-9526
፣	-9527
ሁ	-9528
ዋ	-9529
ኣ	-9530
U	-9531
/	-9532
ዎ	-9533
E	-9534
ጣ	-9535
ቶ	-9536
ɗ	-9537
ቱ	-9538
3	-9539
ዲ	-9540
ዚ	-9541
ዓ	-9542
ዊ	-9543
ሮ	-9544
5	-9545
ሕ	-9546
ኢ	-9547
ኛ	-9548
ሩ	-9549
ቲ	-9550
ቃ	-9551
ሎ	-9552
ሲ	-9553
9	-9554
4	-9555
?	-9556
ዮ	-9557
ሊ	-9558
ሞ	-9559
v	-9560
ቢ	-9561
ዕ	-9562
ኑ	-9563
X	-9564
8	-9565
6	-9566
7	-9567
ኖ	-9568
ጉ	-9569
ƙ	-9570
Z	-9571
ሃ	-9572
ɓ	-9573
ቤ	-9574
ቡ	-9575
፤	-9576
ዩ	-9577
ሱ	-9578
ሌ	-9579
ሽ	-9580
ጽ	-9581
ሥ	-9582
ቻ	-9583
ፋ	-9584
ሙ	-9585
ዛ	-9586
ኝ	-9587
Q	-9588
ጀ	-9589
!	-9590
ኩ	-9591
ዜ	-9592
ሓ	-9593
ኔ	-9594
ኮ	-9595
ጅ	-9596
ዱ	-9597
ሬ	-9598
ቁ	-9599
ቆ	-9600
ቦ	-9601
ፊ	-9602
ጎ	-9603
ጊ	-9604
ጵ	-9605
ኤ	-9606
_	-9607
ሻ	-9608
ዉ	-9609
ጨ	-9610
ጭ	-9611
]	-9612
ዶ	-9613
[	-9614
ሀ	-9615
ኒ	-9616
ዴ	-9617
ጸ	-9618
ዙ	-9619
ሄ	-9620
=	-9621
ሜ	-9622
ጃ	-9623
ቋ	-9624
ጫ	-9625
ፖ	-9626
ኦ	-9627
ጡ	-9628
ሐ	-9629
ቹ	-9630
ቂ	-9631
ቴ	-9632
ጻ	-9633
ሸ	-9634
–	-9635
ã	-9636
ፕ	-9637
ሶ	-9638
ሠ	-9639
ፉ	-9640
ሴ	-9641
ኪ	-9642
V	-9643
›	-9644
ፓ	-9645
;	-9646
ኽ	-9647
ኃ	-9648
ሔ	-9649
ጂ	-9650
ኘ	-9651
ፅ	-9652
ኞ	-9653
‹	-9654
&	-9655
»	-9656
፥	-9657
ጦ	-9658
ኳ	-9659
ፎ	-9660
ኙ	-9661
ፀ	-9662
ፃ	-9663
ኋ	-9664
ኸ	-9665
ጌ	-9666
ዞ	-9667
ቄ	-9668
ቷ	-9669
ኡ	-9670
ጆ	-9671
ጓ	-9672
ቕ	-9673
ዬ	-9674
>	-9675
ኾ	-9676
ፌ	-9677
ሂ	-9678
ኅ	-9679
ጤ	-9680
́	-9681
ሣ	-9682
«	-9683
ኻ	-9684
▷	-9685
ñ	-9686
ዐ	-9687
#	-9688
—	-9689
ጹ	-9690
*	-9691
ኹ	-9692
ጢ	-9693
ጳ	-9694
ሺ	-9695
ሑ	-9696
ኬ	-9697
@	-9698
ቪ	-9699
ሏ	-9700
ቼ	-9701
ጁ	-9702
ƴ	-9703
ቐ	-9704
ሯ	-9705
+	-9706
ፒ	-9707
%	-9708
ዑ	-9709
ጪ	-9710
ሒ	-9711
ቨ	-9712
ሟ	-9713
ዥ	-9714
ɛ	-9715
õ	-9716
ሹ	-9717
ፁ	-9718
ل	-9719
Ƙ	-9720
ሾ	-9721
ɔ	-9722
ŋ	-9723
ኗ	-9724
^	-9725
ጮ	-9726
ጾ	-9727
ጺ	-9728
$	-9729
`	-9730
ቓ	-9731
•	-9732
ሷ	-9733
ሦ	-9734
ጄ	-9735
ጐ	-9736
ዒ	-9737
ቧ	-9738
ቾ	-9739
ũ	-9740
Ɗ	-9741
ጩ	-9742
ĩ	-9743
<	-9744
ቺ	-9745
ዃ	-9746
ዌ	-9747
\	-9748
ቫ	-9749
ا	-9750
ኺ	-9751
ጧ	-9752
ዖ	-9753
~	-9754
É	-9755
é	-9756
}	-9757
ā	-9758
፦	-9759
ዷ	-9760
ኀ	-9761
á	-9762
ዢ	-9763
ቭ	-9764
ه	-9765
·	-9766
ዔ	-9767
ኵ	-9768
ኼ	-9769
م	-9770
ፏ	-9771
ቑ	-9772
ፆ	-9773
ፔ	-9774
ኰ	-9775
ቿ	-9776
{	-9777
ፐ	-9778
Ɓ	-9779
و	-9780
ي	-9781
ž	-9782
ሼ	-9783
ዣ	-9784
፲	-9785
ቬ	-9786
ö	-9787
ሖ	-9788
ẽ	-9789
ፄ	-9790
í	-9791
ጴ	-9792
£	-9793
ዪ	-9794
ሡ	-9795
→	-9796
а	-9797
ع	-9798
ጿ	-9799
ኚ	-9800
ጲ	-9801
س	-9802
፻	-9803
ዟ	-9804
ቖ	-9805
о	-9806
′	-9807
ü	-9808
÷	-9809
ጕ	-9810
ħ	-9811
ቒ	-9812
|	-9813
፳	-9814
ɩ	-9815
َ	-9816
ص	-9817
ə	-9818
ኲ	-9819
ä	-9820
и	-9821
ፂ	-9822
à	-9823
ዀ	-9824
ى	-9825
፱	-9826
ʻ	-9827
е	-9828
ن	-9829
ቈ	-9830
ፑ	-9831
Ñ	-9832
н	-9833
ጼ	-9834
ቍ	-9835
т	-9836
ኜ	-9837
°	-9838
፩	-9839
ḻ	-9840
ó	-9841
р	-9842
ɲ	-9843
←	-9844
š	-9845
☆	-9846
ر	-9847
፪	-9848
©	-9849
፧	-9850
è	-9851
ī	-9852
ዅ	-9853
ዠ	-9854
ቮ	-9855
ጇ	-9856
ú	-9857
ቛ	-9858
с	-9859
ı	-9860
ọ	-9861
፫	-9862
­	-9863
к	-9864
ō	-9865
★	-9866
ب	-9867
ጒ	-9868
л	-9869
ˈ	-9870
ጶ	-9871
в	-9872
፰	-9873
፭	-9874
፮	-9875
■	-9876
ቊ	-9877
፯	-9878
ዽ	-9879
€	-9880
ሢ	-9881
፬	-9882
ت	-9883
ô	-9884
ū	-9885
ኧ	-9886
ዦ	-9887
ì	-9888
ዤ	-9889
м	-9890
ِ	-9891
ğ	-9892
®	-9893
ʋ	-9894
د	-9895
â	-9896
у	-9897
ሤ	-9898
å	-9899
ç	-9900
ý	-9901
🙂	-9902
ሿ	-9903
д	-9904
ጬ	-9905
ɪ	-9906
ẕ	-9907
ሗ	-9908
ẹ	-9909
ቝ	-9910
ْ	-9911
п	-9912
ُ	-9913
‡	-9914
😀	-9915
ك	-9916
̀	-9917
Ƴ	-9918
ş	-9919
ف	-9920
●	-9921
ò	-9922
♥	-9923
️	-9924
ح	-9925
፴	-9926
ጰ	-9927
я	-9928
ة	-9929
ኟ	-9930
̈	-9931
أ	-9932
ኄ	-9933
æ	-9934
̱	-9935
ق	-9936
г	-9937
×	-9938
ː	-9939
ê	-9940
ሇ	-9941
ዂ	-9942
ኂ	-9943
î	-9944
Æ	-9945
ṣ	-9946
ь	-9947
б	-9948
ы	-9949
ー	-9950
Ö	-9951
ّ	-9952
з	-9953
Σ	-9954
Ã	-9955
ዡ	-9956
й	-9957
の	-9958
ù	-9959
Š	-9960
ቚ	-9961
😂	-9962
Å	-9963
č	-9964
û	-9965
ï	-9966
፷	-9967
ṭ	-9968
İ	-9969
‐	-9970
❤	-9971
ኴ	-9972
‬	-9973
ج	-9974
፶	-9975
►	-9976
፵	-9977
」	-9978
さ	-9979
ん	-9980
↑	-9981
。	-9982
᎓	-9983
「	-9984
ኁ	-9985
ዯ	-9986
ま	-9987
Г	-9988
ی	-9989
ë	-9990
い	-9991
す	-9992
ε	-9993
ቘ	-9994
፹	-9995
⠀	-9996
‪	-9997
ṃ	-9998
י	-9999
ش	-10000
た	-10001
ч	-10002
ጯ	-10003
ß	-10004
し	-10005
§	-10006
、	-10007
♪	-10008
ø	-10009
ḥ	-10010
✔	-10011
ו	-10012
і	-10013
إ	-10014
ă	-10015
П	-10016
Ø	-10017
ב	-10018
ē	-10019
⚓	-10020
خ	-10021
К	-10022
א	-10023
Ç	-10024
ð	-10025
̃	-10026
α	-10027
ń	-10028
♦	-10029
፸	-10030
な	-10031
ン	-10032
イ	-10033
ַ	-10034
ز	-10035
Λ	-10036
ኆ	-10037
か	-10038
Д	-10039
±	-10040
ш	-10041
፺	-10042
Í	-10043
ц	-10044
ـ	-10045
ቩ	-10046
ط	-10047
¡	-10048
Ü	-10049
だ	-10050
Â	-10051
С	-10052
ṇ	-10053
−	-10054
ذ	-10055
🕌	-10056
😍	-10057
†	-10058
Π	-10059
А	-10060
х	-10061
Ɛ	-10062
ר	-10063
ト	-10064
⁄	-10065
で	-10066
◆	-10067
ꞌ	-10068
ኍ	-10069
ּ	-10070
ע	-10071
μ	-10072
ա	-10073
😉	-10074
Ý	-10075
ś	-10076
は	-10077
À	-10078
り	-10079
Ä	-10080
ƚ	-10081
大	-10082
	-10083
ጏ	-10084
ʒ	-10085
ι	-10086
ŏ	-10087
○	-10088
モ	-10089
ł	-10090
ɑ	-10091
ˌ	-10092
ת	-10093
آ	-10094
⁠	-10095
一	-10096
	-10097
ɡ	-10098
ж	-10099
В	-10100
√	-10101
こ	-10102
ア	-10103
ス	-10104
ᤰ	-10105
音	-10106
̄	-10107
💵	-10108
ʊ	-10109
М	-10110
ю	-10111
ה	-10112
נ	-10113
О	-10114
と	-10115
Δ	-10116
ک	-10117
日	-10118
が	-10119
Р	-10120
ء	-10121
ě	-10122
Ŋ	-10123
ŭ	-10124
Ō	-10125
Ḻ	-10126
に	-10127
よ	-10128
ל	-10129
😛	-10130
😭	-10131
ř	-10132
―	-10133
▪	-10134
đ	-10135
↔	-10136
ض	-10137
カ	-10138
ッ	-10139
¥	-10140
Ì	-10141
▫	-10142
的	-10143
ʌ	-10144
│	-10145
₦	-10146
غ	-10147
っ	-10148
다	-10149
Ā	-10150
ร	-10151
🏻	-10152
מ	-10153
Ş	-10154
ф	-10155
♡	-10156
あ	-10157
ラ	-10158
¬	-10159
ֲ	-10160
て	-10161
ル	-10162
ć	-10163
ש	-10164
¤	-10165
ث	-10166
れ	-10167
Č	-10168
ο	-10169
̋	-10170
Н	-10171
く	-10172
ĝ	-10173
き	-10174
る	-10175
Ž	-10176
サ	-10177
Γ	-10178
‍	-10179
ɒ	-10180
お	-10181
【	-10182
人	-10183
Ï	-10184
ն	-10185
─	-10186
ָ	-10187
ጔ	-10188
ḍ	-10189
】	-10190
ą	-10191
ʃ	-10192
ν	-10193
Т	-10194
〜	-10195
・	-10196
Ω	-10197
ጛ	-10198
も	-10199
λ	-10200
Л	-10201
ҩ	-10202
ジ	-10203
中	-10204
市	-10205
	-10206
🎆	-10207
🙏	-10208
Á	-10209
þ	-10210
Б	-10211
▼	-10212
そ	-10213
シ	-10214
タ	-10215
פ	-10216
ロ	-10217
ň	-10218
『	-10219
ク	-10220
ṯ	-10221
リ	-10222
グ	-10223
ۡ	-10224
ケ	-10225
ż	-10226
』	-10227
う	-10228
社	-10229
γ	-10230
ئ	-10231
θ	-10232
ρ	-10233
ዄ	-10234
하	-10235
😆	-10236
ę	-10237
野	-10238
이	-10239
ቯ	-10240
ḫ	-10241
ら	-10242
マ	-10243
¦	-10244
È	-10245
،	-10246
ṛ	-10247
Ô	-10248
И	-10249
ր	-10250
✨	-10251
年	-10252
🔥	-10253
	-10254
κ	-10255
ʹ	-10256
τ	-10257
コ	-10258
ナ	-10259
神	-10260
🌹	-10261
Ф	-10262
э	-10263
є	-10264
わ	-10265
を	-10266
ኌ	-10267
け	-10268
Ú	-10269
ե	-10270
♫	-10271
子	-10272
Ó	-10273
ニ	-10274
ム	-10275
語	-10276
😁	-10277
😘	-10278
β	-10279
ς	-10280
ї	-10281
ظ	-10282
ዻ	-10283
🎞	-10284
ĭ	-10285
щ	-10286
ち	-10287
ウ	-10288
国	-10289
👇	-10290
👍	-10291
ד	-10292
↓	-10293
▽	-10294
❌	-10295
エ	-10296
💕	-10297
Ĩ	-10298
ɨ	-10299
̧	-10300
是	-10301
👉	-10302
Ê	-10303
Õ	-10304
‫	-10305
Î	-10306
ď	-10307
כ	-10308
♭	-10309
キ	-10310
拼	-10311
¿	-10312
዗	-10313
◇	-10314
文	-10315
ם	-10316
ጱ	-10317
ブ	-10318
Е	-10319
า	-10320
⚙	-10321
➖	-10322
ね	-10323
チ	-10324
岳	-10325
π	-10326
ק	-10327
✿	-10328
ƒ	-10329
Х	-10330
ֶ	-10331
ቌ	-10332
▶	-10333
路	-10334
나	-10335
🏼	-10336
🤣	-10337
σ	-10338
፨	-10339
⇒	-10340
✅	-10341
ダ	-10342
山	-10343
신	-10344
ј	-10345
ṅ	-10346
↙	-10347
☞	-10348
在	-10349
歌	-10350
어	-10351
¢	-10352
Ò	-10353
你	-10354
公	-10355
🙁	-10356
ÿ	-10357
Φ	-10358
Ќ	-10359
ט	-10360
⸢	-10361
⸣	-10362
フ	-10363
プ	-10364
出	-10365
我	-10366
Đ	-10367
ո	-10368
ً	-10369
ٌ	-10370
گ	-10371
Ẕ	-10372
ẖ	-10373
♂	-10374
月	-10375
生	-10376
语	-10377
	-10378
Ù	-10379
ס	-10380
☀	-10381
せ	-10382
ば	-10383
ャ	-10384
菅	-10385
言	-10386
透	-10387
😊	-10388
♀	-10389
バ	-10390
사	-10391
😦	-10392
ĥ	-10393
ţ	-10394
Ɔ	-10395
ʿ	-10396
η	-10397
つ	-10398
や	-10399
前	-10400
아	-10401
🏽	-10402
Ξ	-10403
テ	-10404
ハ	-10405
三	-10406
家	-10407
者	-10408
😃	-10409
	-10410
ի	-10411
⏩	-10412
了	-10413
作	-10414
名	-10415
Ÿ	-10416
ʁ	-10417
ቔ	-10418
ḏ	-10419
ị	-10420
ド	-10421
南	-10422
字	-10423
本	-10424
版	-10425
💥	-10426
Ë	-10427
ő	-10428
ά	-10429
ְ	-10430
ׁ	-10431
ٰ	-10432
ٱ	-10433
▲	-10434
み	-10435
オ	-10436
ズ	-10437
不	-10438
🎶	-10439
¶	-10440
Ə	-10441
ɤ	-10442
ʾ	-10443
δ	-10444
Ḥ	-10445
え	-10446
ノ	-10447
合	-10448
田	-10449
🔵	-10450
̲	-10451
ί	-10452
Ẹ	-10453
☑	-10454
⚽	-10455
ネ	-10456
下	-10457
位	-10458
有	-10459
ֹ	-10460
ዏ	-10461
✌	-10462
⭐	-10463
入	-10464
十	-10465
和	-10466
好	-10467
成	-10468
里	-10469
œ	-10470
ִ	-10471
天	-10472
店	-10473
网	-10474
꞊	-10475
시	-10476
	-10477
Ð	-10478
ɣ	-10479
У	-10480
ן	-10481
ዧ	-10482
⇓	-10483
◄	-10484
☺	-10485
じ	-10486
ホ	-10487
会	-10488
加	-10489
发	-10490
💖	-10491
Α	-10492
ג	-10493
ٍ	-10494
开	-10495
注	-10496
白	-10497
😄	-10498
Ă	-10499
ɯ	-10500
З	-10501
ጝ	-10502
め	-10503
メ	-10504
目	-10505
ɜ	-10506
̊	-10507
Ш	-10508
ा	-10509
レ	-10510
詞	-10511
지	-10512
ǝ	-10513
ʔ	-10514
̕	-10515
Θ	-10516
ւ	-10517
צ	-10518
❣	-10519
品	-10520
新	-10521
汉	-10522
🇳	-10523
💃	-10524
😜	-10525
Û	-10526
Þ	-10527
ŕ	-10528
υ	-10529
χ	-10530
Ѕ	-10531
Я	-10532
կ	-10533
ụ	-10534
ゃ	-10535
ィ	-10536
ペ	-10537
上	-10538
全	-10539
地	-10540
川	-10541
愛	-10542
方	-10543
时	-10544
우	-10545
💯	-10546
😙	-10547
🙄	-10548
Œ	-10549
ω	-10550
Ы	-10551
ዼ	-10552
ፇ	-10553
፟	-10554
∞	-10555
⏰	-10556
ョ	-10557
八	-10558
安	-10559
小	-10560
数	-10561
가	-10562
🎁	-10563
💡	-10564
😢	-10565
ค	-10566
ḇ	-10567
≤	-10568
ツ	-10569
ビ	-10570
世	-10571
🇪	-10572
🇬	-10573
ġ	-10574
ť	-10575
न	-10576
Ṣ	-10577
ギ	-10578
ワ	-10579
寻	-10580
次	-10581
用	-10582
間	-10583
高	-10584
🇸	-10585
👏	-10586
💋	-10587
💚	-10588
💫	-10589
😲	-10590
ė	-10591
̍	-10592
Ў	-10593
ъ	-10594
ё	-10595
տ	-10596
น	-10597
ย	-10598
ኊ	-10599
※	-10600
⚡	-10601
✍	-10602
❇	-10603
ど	-10604
ベ	-10605
式	-10606
能	-10607
酒	-10608
라	-10609
📷	-10610
🔶	-10611
մ	-10612
ח	-10613
อ	-10614
‰	-10615
∑	-10616
├	-10617
✖	-10618
パ	-10619
手	-10620
真	-10621
花	-10622
	-10623
🌟	-10624
🌸	-10625
💜	-10626
φ	-10627
ό	-10628
ሧ	-10629
ዸ	-10630
ẓ	-10631
为	-10632
以	-10633
口	-10634
多	-10635
学	-10636
明	-10637
第	-10638
行	-10639
마	-10640
	-10641
👌	-10642
👑	-10643
💣	-10644
💰	-10645
Ī	-10646
Ч	-10647
ؤ	-10648
े	-10649
่	-10650
セ	-10651
ソ	-10652
ヤ	-10653
ヶ	-10654
同	-10655
︎	-10656
🇷	-10657
🎤	-10658
🎧	-10659
😎	-10660
ŵ	-10661
ǐ	-10662
յ	-10663
ך	-10664
ა	-10665
ቇ	-10666
━	-10667
✓	-10668
✶	-10669
ガ	-10670
原	-10671
商	-10672
士	-10673
島	-10674
平	-10675
心	-10676
来	-10677
法	-10678
町	-10679
相	-10680
石	-10681
谷	-10682
那	-10683
銉	-10684
수	-10685
	-10686
🇦	-10687
🇹	-10688
😅	-10689
ĺ	-10690
ή	-10691
լ	-10692
♠	-10693
今	-10694
典	-10695
女	-10696
工	-10697
英	-10698
金	-10699
食	-10700
선	-10701
🌃	-10702
👨	-10703
💎	-10704
💘	-10705
🙈	-10706
🙌	-10707
І	-10708
հ	-10709
֖	-10710
֣	-10711
क	-10712
া	-10713
ล	-10714
ጘ	-10715
Ọ	-10716
█	-10717
☻	-10718
♣	-10719
♬	-10720
ェ	-10721
ピ	-10722
事	-10723
代	-10724
分	-10725
司	-10726
比	-10727
集	-10728
인	-10729
🎬	-10730
🏾	-10731
👙	-10732
💙	-10733
ů	-10734
̇	-10735
Ι	-10736
Ν	-10737
ہ	-10738
र	-10739
ฑ	-10740
ฤ	-10741
เ	-10742
Ḫ	-10743
ḵ	-10744
ḷ	-10745
⋆	-10746
□	-10747
⛳	-10748
ず	-10749
ュ	-10750
体	-10751
光	-10752
助	-10753
台	-10754
打	-10755
時	-10756
道	-10757
🏆	-10758
💛	-10759
🕎	-10760
Ĥ	-10761
Ť	-10762
ǎ	-10763
Ѓ	-10764
ֽ	-10765
்	-10766
ท	-10767
∴	-10768
デ	-10769
ミ	-10770
之	-10771
列	-10772
可	-10773
史	-10774
志	-10775
曲	-10776
正	-10777
水	-10778
湖	-10779
源	-10780
見	-10781
賀	-10782
起	-10783
阿	-10784
🌯	-10785
̸	-10786
Κ	-10787
ѕ	-10788
्	-10789
ก	-10790
ง	-10791
◎	-10792
➡	-10793
ご	-10794
む	-10795
゚	-10796
业	-10797
件	-10798
使	-10799
内	-10800
北	-10801
外	-10802
意	-10803
所	-10804
燕	-10805
爸	-10806
电	-10807
表	-10808
西	-10809
载	-10810
香	-10811
무	-10812
	-10813
🐾	-10814
🤔	-10815
į	-10816
Ε	-10817
Τ	-10818
ս	-10819
֑	-10820
֙	-10821
پ	-10822
ะ	-10823
ี	-10824
ả	-10825
⃣	-10826
↩	-10827
⚜	-10828
〰	-10829
井	-10830
他	-10831
來	-10832
再	-10833
太	-10834
定	-10835
情	-10836
感	-10837
散	-10838
最	-10839
沙	-10840
海	-10841
理	-10842
素	-10843
羅	-10844
自	-10845
赤	-10846
部	-10847
기	-10848
	-10849
🎵	-10850
	-10851
Ś	-10852
ű	-10853
ǒ	-10854
ɾ	-10855
˹	-10856
˺	-10857
έ	-10858
Ц	-10859
ֵ	-10860
ז	-10861
।	-10862
ผ	-10863
พ	-10864
ი	-10865
ኯ	-10866
ዺ	-10867
∀	-10868
∫	-10869
◊	-10870
◯	-10871
ザ	-10872
个	-10873
具	-10874
去	-10875
回	-10876
性	-10877
投	-10878
書	-10879
机	-10880
游	-10881
男	-10882
画	-10883
界	-10884
策	-10885
要	-10886
記	-10887
通	-10888
黒	-10889
니	-10890
바	-10891
🇵	-10892
🍍	-10893
💝	-10894
💞	-10895
😥	-10896
Ğ	-10897
ŝ	-10898
ґ	-10899
վ	-10900
ि	-10901
ी	-10902
ม	-10903
ส	-10904
ጙ	-10905
᎒	-10906
ạ	-10907
▀	-10908
♯	-10909
✏	-10910
❓	-10911
《	-10912
》	-10913
へ	-10914
力	-10915
化	-10916
区	-10917
容	-10918
对	-10919
影	-10920
快	-10921
木	-10922
未	-10923
爱	-10924
片	-10925
立	-10926
站	-10927
等	-10928
节	-10929
重	-10930
馬	-10931
민	-10932
	-10933
🇨	-10934
🇺	-10935
🌈	-10936
🌻	-10937
🤗	-10938
🥂	-10939
դ	-10940
٭	-10941
स	-10942
ி	-10943
ั	-10944
ไ	-10945
မ	-10946
ẻ	-10947
≈	-10948
✈	-10949
ぁ	-10950
ざ	-10951
ろ	-10952
伊	-10953
信	-10954
個	-10955
元	-10956
城	-10957
始	-10958
思	-10959
期	-10960
東	-10961
段	-10962
活	-10963
無	-10964
王	-10965
産	-10966
百	-10967
私	-10968
章	-10969
美	-10970
解	-10971
说	-10972
長	-10973
開	-10974
關	-10975
非	-10976
面	-10977
風	-10978
고	-10979
🇩	-10980
📸	-10981
😏	-10982
ĕ	-10983
ļ	-10984
Ł	-10985
ņ	-10986
ų	-10987
ư	-10988
ɖ	-10989
͘	-10990
ξ	-10991
ϋ	-10992
գ	-10993
ք	-10994
֥	-10995
ֿ	-10996
ว	-10997
፠	-10998
ṁ	-10999
ṉ	-11000
∶	-11001
≥	-11002
▬	-11003
⦁	-11004
ぞ	-11005
び	-11006
主	-11007
久	-11008
么	-11009
企	-11010
何	-11011
先	-11012
动	-11013
威	-11014
宝	-11015
師	-11016
後	-11017
想	-11018
戏	-11019
然	-11020
物	-11021
特	-11022
知	-11023
空	-11024
色	-11025
그	-11026
산	-11027
소	-11028
에	-11029
을	-11030
자	-11031
	-11032
🌴	-11033
💔	-11034
🔝	-11035
🕋	-11036
😋	-11037
😕	-11038
🤤	-11039
🤩	-11040
ľ	-11041
Ū	-11042
ƃ	-11043
Ɲ	-11044
ʕ	-11045
ˆ	-11046
Ο	-11047
Ψ	-11048
Ж	-11049
ղ	-11050
؛	-11051
چ	-11052
ह	-11053
ம	-11054
ල	-11055
ด	-11056
้	-11057
ế	-11058
‧	-11059
∂	-11060
☕	-11061
⚫	-11062
❖	-11063
❗	-11064
➥	-11065
ゅ	-11066
ヨ	-11067
万	-11068
于	-11069
初	-11070
古	-11071
吉	-11072
奇	-11073
妈	-11074
客	-11075
巴	-11076
巻	-11077
房	-11078
摩	-11079
料	-11080
施	-11081
楽	-11082
様	-11083
機	-11084
由	-11085
祐	-11086
福	-11087
話	-11088
词	-11089
这	-11090
리	-11091
순	-11092
🇲	-11093
🌙	-11094
🌺	-11095
🎙	-11096
👁	-11097
📀	-11098
🔲	-11099
😈	-11100
😗	-11101
😱	-11102
Ē	-11103
Ţ	-11104
Ż	-11105
ǹ	-11106
ɕ	-11107
͡	-11108
Υ	-11109
ύ	-11110
Ђ	-11111
ը	-11112
ծ	-11113
ײ	-11114
߹	-11115
द	-11116
க	-11117
ช	-11118
ธ	-11119
บ	-11120
ာ	-11121
Ṭ	-11122
∙	-11123
└	-11124
║	-11125
⚪	-11126
✊	-11127
ぬ	-11128
ほ	-11129
ボ	-11130
ヽ	-11131
二	-11132
亚	-11133
产	-11134
亲	-11135
仮	-11136
保	-11137
偄	-11138
偔	-11139
切	-11140
单	-11141
变	-11142
命	-11143
坂	-11144
場	-11145
夜	-11146
奏	-11147
季	-11148
就	-11149
崎	-11150
巳	-11151
提	-11152
撱	-11153
朝	-11154
株	-11155
氏	-11156
油	-11157
演	-11158
点	-11159
炽	-11160
熊	-11161
甲	-11162
發	-11163
着	-11164
简	-11165
系	-11166
網	-11167
经	-11168
而	-11169
誦	-11170
转	-11171
近	-11172
選	-11173
들	-11174
성	-11175
안	-11176
요	-11177
타	-11178
	-11179
	-11180
﴾	-11181
﴿	-11182
🌞	-11183
🍾	-11184
🐲	-11185
😳	-11186
🙊	-11187
🦄	-11188
Ň	-11189
ź	-11190
ɐ	-11191
Η	-11192
Ю	-11193
ԑ	-11194
Հ	-11195
է	-11196
պ	-11197
۱	-11198
ज	-11199
त	-11200
ื	-11201
ዾ	-11202
᎐	-11203
ḡ	-11204
☎	-11205
➤	-11206
⭕	-11207
々	-11208
ぎ	-11209
ァ	-11210
ゴ	-11211
乐	-11212
书	-11213
冬	-11214
到	-11215
制	-11216
半	-11217
后	-11218
君	-11219
器	-11220
型	-11221
域	-11222
夏	-11223
失	-11224
妥	-11225
官	-11226
室	-11227
屋	-11228
展	-11229
引	-11230
收	-11231
材	-11232
束	-11233
果	-11234
标	-11235
此	-11236
気	-11237
沢	-11238
浜	-11239
消	-11240
滋	-11241
瑪	-11242
眼	-11243
研	-11244
破	-11245
科	-11246
笑	-11247
草	-11248
视	-11249
让	-11250
身	-11251
郎	-11252
限	-11253
馃	-11254
駒	-11255
马	-11256
魔	-11257
국	-11258
난	-11259
문	-11260
미	-11261
분	-11262
의	-11263
	-11264
	-11265
🇮	-11266
🌶	-11267
🍁	-11268
🎥	-11269
🐻	-11270
💓	-11271
💪	-11272
📌	-11273
📚	-11274
🔃	-11275
🕺	-11276
🤝	-11277
	-11278
ċ	-11279
Ę	-11280
ĵ	-11281
ķ	-11282
ĸ	-11283
Ƚ	-11284
ɠ	-11285
ˇ	-11286
̦	-11287
Μ	-11288
Χ	-11289
Ё	-11290
Й	-11291
Ъ	-11292
Э	-11293
ѓ	-11294
؟	-11295
ٓ	-11296
ट	-11297
प	-11298
म	-11299
ल	-11300
த	-11301
ณ	-11302
ถ	-11303
፼	-11304
⌈	-11305
⌉	-11306
┃	-11307
♧	-11308
♨	-11309
✧	-11310
✩	-11311
❁	-11312
ぶ	-11313
べ	-11314
ぼ	-11315
丁	-11316
与	-11317
交	-11318
们	-11319
依	-11320
免	-11321
內	-11322
共	-11323
刻	-11324
友	-11325
号	-11326
向	-11327
址	-11328
報	-11329
奈	-11330
姨	-11331
媽	-11332
孙	-11333
寺	-11334
少	-11335
应	-11336
度	-11337
彩	-11338
指	-11339
案	-11340
横	-11341
武	-11342
母	-11343
民	-11344
求	-11345
池	-11346
河	-11347
温	-11348
照	-11349
発	-11350
益	-11351
盘	-11352
繁	-11353
至	-11354
艺	-11355
苏	-11356
衣	-11357
豪	-11358
资	-11359
足	-11360
転	-11361
都	-11362
长	-11363
門	-11364
问	-11365
과	-11366
네	-11367
는	-11368
말	-11369
오	-11370
운	-11371
일	-11372
한	-11373
	-11374
	-11375
	-11376
🇧	-11377
🇫	-11378
🇭	-11379
🌷	-11380
🌼	-11381
🍌	-11382
🍸	-11383
🍹	-11384
🎼	-11385
🐶	-11386
👈	-11387
💗	-11388
🔊	-11389
🖤	-11390
😻	-11391
ĉ	-11392
Ń	-11393
Ŧ	-11394
ơ	-11395
ș	-11396
̤	-11397
ў	-11398
џ	-11399
Ҟ	-11400
Ա	-11401
֔	-11402
֤	-11403
ֻ	-11404
۷	-11405
ं	-11406
ः	-11407
य	-11408
ழ	-11409
്	-11410
ญ	-11411
ต	-11412
ภ	-11413
ห	-11414
โ	-11415
າ	-11416
ရ	-11417
ဲ	-11418
ኈ	-11419
ዿ	-11420
ጚ	-11421
ṟ	-11422
ố	-11423
⇆	-11424
∆	-11425
╋	-11426
△	-11427
◘	-11428
◦	-11429
☝	-11430
✪	-11431
❄	-11432
ぐ	-11433
ぽ	-11434
ゲ	-11435
ヴ	-11436
丸	-11437
佐	-11438
供	-11439
倖	-11440
六	-11441
写	-11442
冷	-11443
卡	-11444
印	-11445
叫	-11446
吗	-11447
场	-11448
基	-11449
変	-11450
夕	-11451
布	-11452
当	-11453
攻	-11454
早	-11455
景	-11456
服	-11457
梁	-11458
業	-11459
橋	-11460
歳	-11461
殷	-11462
津	-11463
深	-11464
焼	-11465
猫	-11466
痛	-11467
离	-11468
穂	-11469
竹	-11470
符	-11471
答	-11472
统	-11473
置	-11474
背	-11475
舞	-11476
茅	-11477
葉	-11478
藤	-11479
见	-11480
謝	-11481
谢	-11482
買	-11483
購	-11484
賽	-11485
软	-11486
造	-11487
饰	-11488
體	-11489
게	-11490
내	-11491
대	-11492
서	-11493
여	-11494
장	-11495
카	-11496
코	-11497
키	-11498
🇯	-11499
🇰	-11500
🌐	-11501
🌱	-11502
🍃	-11503
🍓	-11504
🎂	-11505
👀	-11506
👩	-11507
🔫	-11508
🙋	-11509
🧚	-11510
Ą	-11511
Ć	-11512
ŧ	-11513
ǧ	-11514
ǫ	-11515
ɼ	-11516
ʀ	-11517
̳	-11518
Ρ	-11519
բ	-11520
զ	-11521
ց	-11522
֗	-11523
ֱ	-11524
ے	-11525
ਾ	-11526
ನ	-11527
จ	-11528
ฉ	-11529
ป	-11530
ლ	-11531
რ	-11532
ቜ	-11533
ጷ	-11534
Ꮎ	-11535
ា	-11536
ᴐ	-11537
ặ	-11538
↟	-11539
∈	-11540
≠	-11541
⋅	-11542
☁	-11543
☄	-11544
☪	-11545
☼	-11546
♛	-11547
✎	-11548
ぃ	-11549
げ	-11550
ひ	-11551
ふ	-11552
ポ	-11553
七	-11554
什	-11555
介	-11556
値	-11557
健	-11558
其	-11559
别	-11560
動	-11561
华	-11562
协	-11563
双	-11564
各	-11565
呆	-11566
团	-11567
图	-11568
園	-11569
堂	-11570
声	-11571
存	-11572
宮	-11573
対	-11574
将	-11575
尾	-11576
居	-11577
州	-11578
师	-11579
并	-11580
建	-11581
得	-11582
总	-11583
應	-11584
接	-11585
搬	-11586
改	-11587
效	-11588
教	-11589
斐	-11590
春	-11591
晋	-11592
會	-11593
杂	-11594
村	-11595
条	-11596
根	-11597
格	-11598
模	-11599
止	-11600
气	-11601
永	-11602
江	-11603
波	-11604
浴	-11605
港	-11606
直	-11607
看	-11608
矢	-11609
码	-11610
祭	-11611
种	-11612
称	-11613
究	-11614
粢	-11615
结	-11616
華	-11617
蘇	-11618
裲	-11619
褊	-11620
設	-11621
记	-11622
论	-11623
评	-11624
读	-11625
进	-11626
量	-11627
阪	-11628
陰	-11629
雪	-11630
電	-11631
須	-11632
题	-11633
鹿	-11634
麻	-11635
간	-11636
노	-11637
버	-11638
스	-11639
야	-11640
와	-11641
원	-11642
호	-11643
	-11644
	-11645
	-11646
	-11647
🇱	-11648
🍒	-11649
🏄	-11650
🏿	-11651
🐠	-11652
👯	-11653
📖	-11654
🔘	-11655
🔹	-11656
😠	-11657
😣	-11658
🤓	-11659
Ġ	-11660
Ź	-11661
ǰ	-11662
ț	-11663
ʂ	-11664
ʑ	-11665
̥	-11666
Β	-11667
Ь	-11668
ӑ	-11669
ә	-11670
թ	-11671
ֺ	-11672
װ	-11673
۲	-11674
अ	-11675
ड	-11676
ब	-11677
ব	-11678
ল	-11679
ে	-11680
യ	-11681
ස	-11682
ි	-11683
ข	-11684
ุ	-11685
แ	-11686
ํ	-11687
စ	-11688
თ	-11689
ს	-11690
ጞ	-11691
ẗ	-11692
ấ	-11693
ẫ	-11694
ệ	-11695
ừ	-11696
ὲ	-11697
↗	-11698
⇔	-11699
⇠	-11700
∥	-11701
∷	-11702
≪	-11703
≫	-11704
┣	-11705
▤	-11706
☛	-11707
❝	-11708
ⵉ	-11709
ⵍ	-11710
づ	-11711
ゆ	-11712
ォ	-11713
ヒ	-11714
ユ	-11715
ㄚ	-11716
丹	-11717
九	-11718
乱	-11719
京	-11720
任	-11721
修	-11722
兄	-11723
克	-11724
关	-11725
別	-11726
利	-11727
包	-11728
即	-11729
反	-11730
句	-11731
吹	-11732
味	-11733
善	-11734
喜	-11735
因	-11736
塔	-11737
売	-11738
媒	-11739
孫	-11740
实	-11741
密	-11742
尹	-11743
尼	-11744
岡	-11745
已	-11746
常	-11747
干	-11748
座	-11749
強	-11750
形	-11751
御	-11752
微	-11753
念	-11754
恋	-11755
据	-11756
播	-11757
无	-11758
映	-11759
某	-11760
橙	-11761
殺	-11762
毛	-11763
泉	-11764
洋	-11765
洛	-11766
浦	-11767
火	-11768
為	-11769
牛	-11770
现	-11771
病	-11772
眠	-11773
示	-11774
秋	-11775
稿	-11776
筍	-11777
粒	-11778
精	-11779
続	-11780
络	-11781
義	-11782
老	-11783
耶	-11784
肖	-11785
腐	-11786
芒	-11787
落	-11788
著	-11789
蓴	-11790
装	-11791
複	-11792
覧	-11793
貝	-11794
販	-11795
费	-11796
走	-11797
車	-11798
达	-11799
远	-11800
速	-11801
過	-11802
達	-11803
阳	-11804
陽	-11805
难	-11806
雅	-11807
難	-11808
青	-11809
鞣	-11810
題	-11811
願	-11812
频	-11813
风	-11814
飛	-11815
飲	-11816
館	-11817
驪	-11818
鳥	-11819
點	-11820
龍	-11821
龙	-11822
돈	-11823
로	-11824
르	-11825
를	-11826
만	-11827
예	-11828
음	-11829
있	-11830
주	-11831
해	-11832
화	-11833
	-11834
	-11835
	-11836
	-11837
	-11838
	-11839
	-11840
	-11841
	-11842
🇴	-11843
🇿	-11844
🍆	-11845
🎀	-11846
🎄	-11847
👧	-11848
👬	-11849
👳	-11850
👸	-11851
💍	-11852
💱	-11853
🗡	-11854
😌	-11855
😮	-11856
🤷	-11857
🥀	-11858
🥇	-11859
Ė	-11860
ŷ	-11861
ƌ	-11862
Ș	-11863
ȧ	-11864
ȱ	-11865
ɱ	-11866
ʇ	-11867
ˁ	-11868
̣	-11869
Ϊ	-11870
Щ	-11871
љ	-11872
һ	-11873
ռ	-11874
ׂ	-11875
٠	-11876
ۚ	-11877
۝	-11878
ܝ	-11879
߾	-11880
ठ	-11881
ो	-11882
ং	-11883
ਜ	-11884
ப	-11885
ு	-11886
ന	-11887
ാ	-11888
ක	-11889
්	-11890
ิ	-11891
์	-11892
ဂ	-11893
န	-11894
დ	-11895
ე	-11896
ნ	-11897
ო	-11898
ქ	-11899
Ꭴ	-11900
Ꮫ	-11901
Ꮹ	-11902
្	-11903
ḑ	-11904
ḳ	-11905
ậ	-11906
ể	-11907
ỉ	-11908
ộ	-11909
ớ	-11910
⁢	-11911
₹	-11912
℗	-11913
↘	-11914
↳	-11915
∅	-11916
┇	-11917
▄	-11918
☏	-11919
☘	-11920
☸	-11921
⚊	-11922
⚠	-11923
✮	-11924
❔	-11925
❞	-11926
❥	-11927
⫷	-11928
⫸	-11929
ⵜ	-11930
〈	-11931
ぇ	-11932
ぜ	-11933
ょ	-11934
ㄉ	-11935
两	-11936
习	-11937
乾	-11938
五	-11939
休	-11940
传	-11941
伴	-11942
儂	-11943
優	-11944
几	-11945
刊	-11946
务	-11947
勝	-11948
勢	-11949
医	-11950
千	-11951
午	-11952
历	-11953
及	-11954
取	-11955
受	-11956
告	-11957
员	-11958
呢	-11959
周	-11960
哪	-11961
四	-11962
國	-11963
圖	-11964
土	-11965
复	-11966
如	-11967
姉	-11968
完	-11969
寝	-11970
导	-11971
巨	-11972
己	-11973
带	-11974
帽	-11975
幸	-11976
庆	-11977
廣	-11978
弥	-11979
录	-11980
待	-11981
忆	-11982
息	-11983
悪	-11984
戴	-11985
户	-11986
技	-11987
担	-11988
拉	-11989
拜	-11990
持	-11991
换	-11992
推	-11993
搜	-11994
放	-11995
斗	-11996
旅	-11997
族	-11998
星	-11999
晶	-12000
暗	-12001
曾	-12002
朗	-12003
松	-12004
梅	-12005
槍	-12006
欣	-12007
死	-12008
流	-12009
淘	-12010
清	-12011
湾	-12012
満	-12013
獅	-12014
瑞	-12015
番	-12016
瘾	-12017
禁	-12018
管	-12019
篇	-12020
粉	-12021
約	-12022
級	-12023
細	-12024
終	-12025
絵	-12026
線	-12027
约	-12028
线	-12029
编	-12030
翼	-12031
考	-12032
耳	-12033
聚	-12034
職	-12035
肉	-12036
股	-12037
育	-12038
舗	-12039
茶	-12040
荷	-12041
菜	-12042
萨	-12043
蔵	-12044
蚀	-12045
裙	-12046
製	-12047
訛	-12048
說	-12049
諾	-12050
请	-12051
負	-12052
貴	-12053
赛	-12054
辰	-12055
过	-12056
还	-12057
连	-12058
連	-12059
逸	-12060
鍵	-12061
鎌	-12062
门	-12063
陇	-12064
院	-12065
除	-12066
隆	-12067
隐	-12068
雲	-12069
雷	-12070
韭	-12071
领	-12072
魚	-12073
鼻	-12074
ꬃ	-12075
감	-12076
께	-12077
모	-12078
보	-12079
세	-12080
약	-12081
위	-12082
으	-12083
재	-12084
	-12085
	-12086
	-12087
	-12088
	-12089
	-12090
	-12091
🍀	-12092
🍑	-12093
🍪	-12094
🎸	-12095
👆	-12096
👻	-12097
👽	-12098
💦	-12099
📱	-12100
🔅	-12101
🔸	-12102
😡	-12103
😨	-12104
😯	-12105
🙆	-12106
🚒	-12107
🤙	-12108
🤪	-12109
Ď	-12110
Ě	-12111
Ĝ	-12112
Ħ	-12113
Ĺ	-12114
Ũ	-12115
Ƃ	-12116
ǔ	-12117
ʉ	-12118
ʞ	-12119
ʧ	-12120
ʽ	-12121
̆	-12122
̨	-12123
̾	-12124
ζ	-12125
ώ	-12126
қ	-12127
Ҡ	-12128
խ	-12129
ձ	-12130
չ	-12131
փ	-12132
֛	-12133
֧	-12134
֨	-12135
ף	-12136
ױ	-12137
ٲ	-12138
ښ	-12139
ں	-12140
ۇ	-12141
۞	-12142
۰	-12143
۳	-12144
ޓ	-12145
ग	-12146
ध	-12147
़	-12148
ु	-12149
ू	-12150
দ	-12151
ন	-12152
ম	-12153
স	-12154
ਕ	-12155
ਨ	-12156
ੀ	-12157
ੋ	-12158
ச	-12159
ன	-12160
ய	-12161
ற	-12162
ொ	-12163
ు	-12164
ె	-12165
್	-12166
ം	-12167
മ	-12168
ැ	-12169
ษ	-12170
๑	-12171
ລ	-12172
ວ	-12173
က	-12174
ဗ	-12175
သ	-12176
အ	-12177
ိ	-12178
ီ	-12179
ေ	-12180
გ	-12181
ვ	-12182
უ	-12183
ጟ	-12184
ፘ	-12185
Ꮢ	-12186
ន	-12187
ស	-12188
ᠠ	-12189
Ḳ	-12190
ṓ	-12191
ṙ	-12192
ầ	-12193
ủ	-12194
ὤ	-12195
‭	-12196
↵	-12197
⇨	-12198
∽	-12199
≒	-12200
⊥	-12201
⎝	-12202
⎠	-12203
┓	-12204
═	-12205
╥	-12206
▌	-12207
░	-12208
▸	-12209
◀	-12210
◕	-12211
◼	-12212
☔	-12213
✆	-12214
✘	-12215
✡	-12216
✺	-12217
❀	-12218
⟨	-12219
⟩	-12220
⨯	-12221
ⴰ	-12222
ⴱ	-12223
ⵎ	-12224
ⵏ	-12225
ⵔ	-12226
ⵖ	-12227
〇	-12228
ぉ	-12229
ぴ	-12230
ゥ	-12231
ゼ	-12232
ゾ	-12233
ヘ	-12234
ㄩ	-12235
专	-12236
丘	-12237
东	-12238
並	-12239
乙	-12240
也	-12241
云	-12242
亞	-12243
仁	-12244
仕	-12245
价	-12246
例	-12247
便	-12248
做	-12249
側	-12250
像	-12251
儒	-12252
儿	-12253
兰	-12254
兴	-12255
円	-12256
刺	-12257
剛	-12258
募	-12259
参	-12260
只	-12261
吧	-12262
哉	-12263
啊	-12264
嗎	-12265
塞	-12266
塩	-12267
増	-12268
头	-12269
奖	-12270
姫	-12271
嫌	-12272
孩	-12273
実	-12274
宿	-12275
富	-12276
寒	-12277
察	-12278
寿	-12279
希	-12280
广	-12281
库	-12282
康	-12283
延	-12284
彡	-12285
律	-12286
徳	-12287
必	-12288
忌	-12289
忠	-12290
恵	-12291
您	-12292
態	-12293
或	-12294
換	-12295
撮	-12296
政	-12297
敏	-12298
整	-12299
断	-12300
易	-12301
晴	-12302
暮	-12303
更	-12304
术	-12305
李	-12306
杯	-12307
林	-12308
枚	-12309
核	-12310
档	-12311
梦	-12312
槵	-12313
權	-12314
步	-12315
歩	-12316
歷	-12317
毅	-12318
每	-12319
氣	-12320
治	-12321
泡	-12322
洲	-12323
派	-12324
漢	-12325
漫	-12326
灣	-12327
現	-12328
球	-12329
琴	-12330
瑩	-12331
瑰	-12332
甘	-12333
畔	-12334
略	-12335
盛	-12336
盟	-12337
睡	-12338
磨	-12339
礼	-12340
秀	-12341
程	-12342
稲	-12343
箱	-12344
箴	-12345
節	-12346
篠	-12347
紀	-12348
索	-12349
経	-12350
絡	-12351
罗	-12352
胸	-12353
脑	-12354
腹	-12355
般	-12356
艶	-12357
荘	-12358
菩	-12359
蒟	-12360
薩	-12361
藏	-12362
褲	-12363
規	-12364
规	-12365
角	-12366
計	-12367
試	-12368
詩	-12369
詳	-12370
認	-12371
誰	-12372
警	-12373
譯	-12374
话	-12375
費	-12376
质	-12377
踪	-12378
輸	-12379
输	-12380
辛	-12381
這	-12382
進	-12383
運	-12384
银	-12385
锴	-12386
间	-12387
闻	-12388
阴	-12389
隊	-12390
震	-12391
霞	-12392
静	-12393
韓	-12394
頸	-12395
饮	-12396
首	-12397
驫	-12398
鰐	-12399
麦	-12400
거	-12401
것	-12402
경	-12403
관	-12404
구	-12405
꾸	-12406
던	-12407
덴	-12408
도	-12409
래	-12410
름	-12411
린	-12412
박	-12413
비	-12414
심	-12415
양	-12416
언	-12417
은	-12418
잠	-12419
조	-12420
크	-12421
텔	-12422
포	-12423
희	-12424
	-12425
	-12426
🌊	-12427
🌚	-12428
🌛	-12429
🍣	-12430
🍰	-12431
🎈	-12432
🎉	-12433
🎨	-12434
🎭	-12435
🐕	-12436
🐟	-12437
🐰	-12438
🐳	-12439
🐼	-12440
👋	-12441
👗	-12442
👥	-12443
👰	-12444
👿	-12445
💁	-12446
💸	-12447
💿	-12448
📎	-12449
📶	-12450
🔁	-12451
🔆	-12452
🔽	-12453
😐	-12454
😑	-12455
😒	-12456
😺	-12457
🚀	-12458
🤴	-12459
Ľ	-12460
Ő	-12461
Ŕ	-12462
Ř	-12463
Ű	-12464
Ŵ	-12465
ƞ	-12466
Ư	-12467
ǘ	-12468
ɭ	-12469
ʤ	-12470
ˀ	-12471
̂	-12472
̜	-12473
̠	-12474
̪	-12475
̯	-12476
ͻ	-12477
ϡ	-12478
ϥ	-12479
Ї	-12480
ќ	-12481
Ѩ	-12482
Қ	-12483
ҡ	-12484
ҷ	-12485
Ӏ	-12486
Ե	-12487
Պ	-12488
Վ	-12489
շ	-12490
֝	-12491
֩	-12492
ץ	-12493
١	-12494
٤	-12495
ژ	-12496
۴	-12497
܂	-12498
ܐ	-12499
ܪ	-12500
ܵ	-12501
ަ	-12502
औ	-12503
च	-12504
भ	-12505
ष	-12506
ै	-12507
ও	-12508
ক	-12509
ু	-12510
ਪ	-12511
ਬ	-12512
ੰ	-12513
ગ	-12514
ર	-12515
ந	-12516
ா	-12517
గ	-12518
న	-12519
ల	-12520
ಕ	-12521
ಡ	-12522
ೆ	-12523
ഞ	-12524
ല	-12525
സ	-12526
ി	-12527
െ	-12528
ซ	-12529
฿	-12530
็	-12531
ས	-12532
ါ	-12533
ု	-12534
ူ	-12535
း	-12536
္	-12537
်	-12538
ኇ	-12539
ዹ	-12540
ፗ	-12541
ፚ	-12542
Ꭿ	-12543
Ꮝ	-12544
Ꮧ	-12545
᐀	-12546
ភ	-12547
រ	-12548
េ	-12549
ḩ	-12550
Ṇ	-12551
ṗ	-12552
ắ	-12553
Ẽ	-12554
ề	-12555
ễ	-12556
Ị	-12557
ỏ	-12558
ồ	-12559
ự	-12560
ῆ	-12561
‒	-12562
⇐	-12563
⇦	-12564
∇	-12565
∏	-12566
∗	-12567
∧	-12568
∨	-12569
≦	-12570
⌚	-12571
⌣	-12572
⎜	-12573
☂	-12574
♩	-12575
⛅	-12576
✉	-12577
✋	-12578
✛	-12579
✠	-12580
➢	-12581
⟦	-12582
⟧	-12583
ⶀ	-12584
ⶃ	-12585
ⶒ	-12586
ⶭ	-12587
ⷅ	-12588
ぷ	-12589
ぺ	-12590
ㄎ	-12591
ㄢ	-12592
亀	-12593
互	-12594
仔	-12595
付	-12596
仙	-12597
令	-12598
优	-12599
住	-12600
佳	-12601
係	-12602
俣	-12603
俺	-12604
假	-12605
偽	-12606
傳	-12607
傻	-12608
充	-12609
刀	-12610
创	-12611
刪	-12612
剣	-12613
功	-12614
劳	-12615
势	-12616
務	-12617
勤	-12618
區	-12619
升	-12620
博	-12621
卫	-12622
卵	-12623
収	-12624
吃	-12625
含	-12626
听	-12627
启	-12628
哈	-12629
員	-12630
哲	-12631
唐	-12632
唱	-12633
問	-12634
啦	-12635
啪	-12636
嘉	-12637
団	-12638
図	-12639
固	-12640
圈	-12641
坊	-12642
坝	-12643
境	-12644
增	-12645
壮	-12646
奥	-12647
妹	-12648
姐	-12649
娱	-12650
學	-12651
它	-12652
宅	-12653
宏	-12654
宴	-12655
寂	-12656
局	-12657
嵐	-12658
帰	-12659
幻	-12660
序	-12661
府	-12662
庭	-12663
弟	-12664
張	-12665
忘	-12666
恒	-12667
恙	-12668
悲	-12669
慈	-12670
慕	-12671
戒	-12672
戦	-12673
才	-12674
托	-12675
找	-12676
承	-12677
抜	-12678
报	-12679
拧	-12680
拿	-12681
挥	-12682
振	-12683
探	-12684
搭	-12685
摄	-12686
旗	-12687
昧	-12688
昨	-12689
晚	-12690
暂	-12691
暴	-12692
曜	-12693
曼	-12694
板	-12695
枕	-12696
架	-12697
柏	-12698
染	-12699
柯	-12700
样	-12701
桃	-12702
概	-12703
樹	-12704
欢	-12705
欧	-12706
残	-12707
毒	-12708
汁	-12709
決	-12710
沖	-12711
洗	-12712
测	-12713
済	-12714
渐	-12715
满	-12716
激	-12717
灰	-12718
熱	-12719
牡	-12720
犬	-12721
狗	-12722
狩	-12723
独	-12724
猛	-12725
猪	-12726
玉	-12727
环	-12728
瑙	-12729
瑾	-12730
留	-12731
當	-12732
皆	-12733
省	-12734
県	-12735
短	-12736
砂	-12737
秘	-12738
移	-12739
種	-12740
穴	-12741
窓	-12742
筆	-12743
签	-12744
算	-12745
米	-12746
类	-12747
糖	-12748
納	-12749
紙	-12750
紹	-12751
絲	-12752
絶	-12753
緊	-12754
総	-12755
編	-12756
縄	-12757
红	-12758
纪	-12759
练	-12760
终	-12761
绩	-12762
翔	-12763
职	-12764
聴	-12765
肆	-12766
臣	-12767
芳	-12768
若	-12769
苦	-12770
荐	-12771
荡	-12772
莉	-12773
莎	-12774
菓	-12775
萬	-12776
蒡	-12777
蓁	-12778
藜	-12779
藝	-12780
袋	-12781
袴	-12782
裘	-12783
褞	-12784
褥	-12785
褪	-12786
褶	-12787
襪	-12788
观	-12789
誓	-12790
読	-12791
請	-12792
論	-12793
護	-12794
试	-12795
诗	-12796
诺	-12797
豆	-12798
貨	-12799
貸	-12800
資	-12801
贵	-12802
赅	-12803
軾	-12804
车	-12805
辺	-12806
迅	-12807
迦	-12808
迷	-12809
追	-12810
送	-12811
途	-12812
週	-12813
遍	-12814
遠	-12815
遺	-12816
配	-12817
酱	-12818
酷	-12819
酸	-12820
采	-12821
釜	-12822
鈴	-12823
銀	-12824
鋼	-12825
鏡	-12826
钟	-12827
钢	-12828
钱	-12829
险	-12830
隈	-12831
隨	-12832
雀	-12833
雑	-12834
雜	-12835
需	-12836
霊	-12837
霧	-12838
靴	-12839
頁	-12840
類	-12841
项	-12842
预	-12843
颜	-12844
験	-12845
驾	-12846
验	-12847
鱼	-12848
鶴	-12849
鷺	-12850
鸡	-12851
黄	-12852
ꀠ	-12853
ꃅ	-12854
ꇤ	-12855
ꈈ	-12856
ꊖ	-12857
ꬂ	-12858
갈	-12859
결	-12860
계	-12861
까	-12862
남	-12863
낱	-12864
년	-12865
눉	-12866
닷	-12867
데	-12868
두	-12869
드	-12870
등	-12871
락	-12872
맛	-12873
며	-12874
베	-12875
복	-12876
부	-12877
설	-12878
손	-12879
슬	-12880
식	-12881
알	-12882
엁	-12883
연	-12884
완	-12885
월	-12886
유	-12887
작	-12888
찾	-12889
천	-12890
토	-12891
트	-12892
파	-12893
	-12894
	-12895
	-12896
	-12897
	-12898
	-12899
	-12900
	-12901
	-12902
	-12903
	-12904
	-12905
𐌰	-12906
𒀭	-12907
🃏	-12908
🇼	-12909
🌏	-12910
🌠	-12911
🌿	-12912
🍴	-12913
🍷	-12914
🎱	-12915
🏃	-12916
🏳	-12917
🐈	-12918
🐋	-12919
🐡	-12920
🐦	-12921
👊	-12922
👫	-12923
👶	-12924
💀	-12925
📅	-12926
📗	-12927
📥	-12928
🔗	-12929
🔙	-12930
🔱	-12931
🕊	-12932
🖇	-12933
🖱	-12934
🗓	-12935
🗝	-12936
😇	-12937
😔	-12938
😚	-12939
😝	-12940
😪	-12941
😬	-12942
😰	-12943
🙉	-12944
🚴	-12945
🚶	-12946
🤘	-12947
🥢	-12948
🦇	-12949
🦉	-12950
🦊	-12951
Ĉ	-12952
Į	-12953
Ķ	-12954
Ų	-12955
Ƅ	-12956
Ƌ	-12957
ƪ	-12958
ƭ	-12959
Ʒ	-12960
ƿ	-12961
ǁ	-12962
Ǎ	-12963
Ǐ	-12964
Ǒ	-12965
Ǔ	-12966
Ǖ	-12967
ǖ	-12968
Ǘ	-12969
Ǚ	-12970
ǚ	-12971
Ǜ	-12972
ǜ	-12973
Ț	-12974
ȝ	-12975
ȯ	-12976
Ⱥ	-12977
ɂ	-12978
Ɍ	-12979
ɟ	-12980
ɥ	-12981
ɸ	-12982
ɺ	-12983
ʈ	-12984
ʖ	-12985
ʟ	-12986
ˊ	-12987
̩	-12988
͜	-12989
Ζ	-12990
ψ	-12991
Ј	-12992
ћ	-12993
ң	-12994
ҫ	-12995
ӣ	-12996
Ժ	-12997
Մ	-12998
Ս	-12999
՚	-13000
֕	-13001
֜	-13002
֭	-13003
׃	-13004
٣	-13005
٫	-13006
ڃ	-13007
ڌ	-13008
ې	-13009
ە	-13010
ۖ	-13011
ۦ	-13012
ۧ	-13013
۶	-13014
۹	-13015
ܘ	-13016
އ	-13017
ވ	-13018
ި	-13019
ް	-13020
आ	-13021
ए	-13022
ख	-13023
ण	-13024
व	-13025
श	-13026
গ	-13027
ভ	-13028
ਰ	-13029
જ	-13030
ત	-13031
સ	-13032
ા	-13033
ી	-13034
ુ	-13035
ે	-13036
ଡ	-13037
େ	-13038
஛	-13039
ட	-13040
ண	-13041
ல	-13042
ள	-13043
ீ	-13044
ெ	-13045
ை	-13046
త	-13047
ಸ	-13048
ക	-13049
ങ	-13050
ണ	-13051
ത	-13052
പ	-13053
റ	-13054
ള	-13055
ു	-13056
ං	-13057
ග	-13058
ය	-13059
හ	-13060
ฅ	-13061
ฐ	-13062
ศ	-13063
ู	-13064
ใ	-13065
๓	-13066
ກ	-13067
ນ	-13068
ພ	-13069
ສ	-13070
་	-13071
ཤ	-13072
ခ	-13073
င	-13074
ဒ	-13075
ပ	-13076
လ	-13077
კ	-13078
მ	-13079
პ	-13080
ღ	-13081
ጜ	-13082
ᎀ	-13083
᎗	-13084
Ꭰ	-13085
Ꭶ	-13086
Ꮑ	-13087
Ꮕ	-13088
Ꮣ	-13089
Ꮩ	-13090
Ꮵ	-13091
Ꮻ	-13092
Ꮿ	-13093
ខ	-13094
ម	-13095
ែ	-13096
ᠭ	-13097
ᠷ	-13098
ᴇ	-13099
ᴍ	-13100
ᴏ	-13101
ᴖ	-13102
ḃ	-13103
Ḇ	-13104
Ḍ	-13105
Ḏ	-13106
ḕ	-13107
Ḵ	-13108
ṳ	-13109
Ẓ	-13110
Ạ	-13111
Ấ	-13112
Ẩ	-13113
ẩ	-13114
ằ	-13115
ổ	-13116
ờ	-13117
ứ	-13118
ử	-13119
ữ	-13120
ἀ	-13121
ὰ	-13122
‖	-13123
‵	-13124
⁦	-13125
⁩	-13126
℮	-13127
∓	-13128
∠	-13129
∩	-13130
∵	-13131
∼	-13132
≡	-13133
≧	-13134
⊂	-13135
⊕	-13136
⋯	-13137
⎛	-13138
⎞	-13139
⎟	-13140
␣	-13141
┌	-13142
┏	-13143
╚	-13144
╧	-13145
╬	-13146
╹	-13147
▒	-13148
▣	-13149
◡	-13150
◣	-13151
◥	-13152
◩	-13153
◪	-13154
☃	-13155
☊	-13156
☐	-13157
☬	-13158
☮	-13159
☹	-13160
☾	-13161
♑	-13162
♒	-13163
♔	-13164
♕	-13165
♚	-13166
⚔	-13167
⛄	-13168
⛈	-13169
⛽	-13170
✞	-13171
✬	-13172
✯	-13173
✰	-13174
✴	-13175
❚	-13176
❛	-13177
➊	-13178
➔	-13179
➜	-13180
➨	-13181
⠁	-13182
⠑	-13183
ⴳ	-13184
ⴷ	-13185
ⷐ	-13186
〉	-13187
〣	-13188
ぅ	-13189
ぢ	-13190
ぱ	-13191
ゎ	-13192
ヌ	-13193
丈	-13194
且	-13195
临	-13196
举	-13197
乃	-13198
义	-13199
乌	-13200
争	-13201
些	-13202
亭	-13203
亮	-13204
仅	-13205
仪	-13206
仲	-13207
份	-13208
仿	-13209
伏	-13210
众	-13211
伽	-13212
但	-13213
佛	-13214
侦	-13215
俗	-13216
倒	-13217
偉	-13218
偏	-13219
停	-13220
偶	-13221
傅	-13222
傘	-13223
備	-13224
催	-13225
傷	-13226
兼	-13227
军	-13228
农	-13229
冰	-13230
决	-13231
冶	-13232
准	-13233
刈	-13234
判	-13235
刷	-13236
剤	-13237
剪	-13238
副	-13239
割	-13240
努	-13241
匡	-13242
卒	-13243
単	-13244
压	-13245
厦	-13246
厨	-13247
县	-13248
又	-13249
另	-13250
右	-13251
吊	-13252
吟	-13253
否	-13254
呀	-13255
响	-13256
哑	-13257
喰	-13258
営	-13259
嗒	-13260
嘅	-13261
囉	-13262
圓	-13263
圣	-13264
坐	-13265
垂	-13266
堡	-13267
墓	-13268
墩	-13269
墳	-13270
壁	-13271
壊	-13272
壹	-13273
处	-13274
夢	-13275
夫	-13276
夷	-13277
套	-13278
奪	-13279
妍	-13280
姓	-13281
婆	-13282
婚	-13283
婿	-13284
嫦	-13285
嬉	-13286
孃	-13287
孝	-13288
孤	-13289
宓	-13290
宣	-13291
害	-13292
寫	-13293
射	-13294
將	-13295
尔	-13296
尚	-13297
尸	-13298
尽	-13299
属	-13300
岐	-13301
岩	-13302
左	-13303
巧	-13304
巫	-13305
差	-13306
币	-13307
帯	-13308
幕	-13309
幼	-13310
异	-13311
张	-13312
弦	-13313
弪	-13314
弱	-13315
归	-13316
彦	-13317
徐	-13318
德	-13319
怎	-13320
怛	-13321
怡	-13322
急	-13323
悦	-13324
惊	-13325
惰	-13326
愿	-13327
慧	-13328
慶	-13329
戲	-13330
戸	-13331
扉	-13332
扩	-13333
把	-13334
択	-13335
护	-13336
抽	-13337
拍	-13338
拵	-13339
捕	-13340
掛	-13341
採	-13342
控	-13343
掲	-13344
援	-13345
搅	-13346
摀	-13347
摎	-13348
摸	-13349
支	-13350
故	-13351
救	-13352
敬	-13353
數	-13354
昌	-13355
昔	-13356
显	-13357
晃	-13358
普	-13359
暦	-13360
曰	-13361
望	-13362
末	-13363
杀	-13364
杨	-13365
极	-13366
构	-13367
析	-13368
枝	-13369
枫	-13370
查	-13371
柱	-13372
栄	-13373
栗	-13374
校	-13375
桜	-13376
條	-13377
梨	-13378
棒	-13379
森	-13380
楠	-13381
楼	-13382
槴	-13383
樓	-13384
標	-13385
橐	-13386
欲	-13387
歇	-13388
歯	-13389
殊	-13390
毎	-13391
氯	-13392
汗	-13393
汰	-13394
沒	-13395
沓	-13396
泔	-13397
泥	-13398
泰	-13399
洪	-13400
浅	-13401
济	-13402
浪	-13403
液	-13404
渠	-13405
渡	-13406
溢	-13407
滂	-13408
潸	-13409
澳	-13410
炎	-13411
烏	-13412
烟	-13413
烤	-13414
煎	-13415
牌	-13416
牙	-13417
牟	-13418
状	-13419
玛	-13420
玩	-13421
珍	-13422
珞	-13423
珠	-13424
班	-13425
琵	-13426
琶	-13427
琿	-13428
璧	-13429
瓣	-13430
申	-13431
疾	-13432
皮	-13433
皿	-13434
盐	-13435
監	-13436
盤	-13437
眉	-13438
睛	-13439
瞬	-13440
矿	-13441
硬	-13442
碧	-13443
確	-13444
磯	-13445
祥	-13446
禅	-13447
禊	-13448
禎	-13449
稳	-13450
童	-13451
端	-13452
笔	-13453
笠	-13454
筑	-13455
籍	-13456
籤	-13457
粗	-13458
粨	-13459
糕	-13460
純	-13461
紗	-13462
紫	-13463
緑	-13464
縛	-13465
繋	-13466
織	-13467
繡	-13468
繹	-13469
级	-13470
纯	-13471
组	-13472
继	-13473
续	-13474
维	-13475
绵	-13476
缠	-13477
羲	-13478
翁	-13479
翻	-13480
耀	-13481
耐	-13482
联	-13483
聲	-13484
肃	-13485
肄	-13486
胛	-13487
脲	-13488
致	-13489
舰	-13490
船	-13491
良	-13492
艷	-13493
芸	-13494
范	-13495
茆	-13496
荣	-13497
荼	-13498
营	-13499
葵	-13500
蒲	-13501
蒼	-13502
蔡	-13503
薬	-13504
藁	-13505
虚	-13506
蛙	-13507
蜃	-13508
血	-13509
術	-13510
衾	-13511
被	-13512
裝	-13513
裨	-13514
視	-13515
観	-13516
觸	-13517
訊	-13518
訓	-13519
訳	-13520
該	-13521
誕	-13522
誼	-13523
調	-13524
談	-13525
諤	-13526
諦	-13527
謗	-13528
謹	-13529
譜	-13530
讀	-13531
计	-13532
认	-13533
诞	-13534
该	-13535
详	-13536
谁	-13537
谱	-13538
豊	-13539
象	-13540
財	-13541
賢	-13542
贝	-13543
财	-13544
超	-13545
越	-13546
趣	-13547
跌	-13548
跛	-13549
距	-13550
跡	-13551
載	-13552
輝	-13553
轮	-13554
轼	-13555
辅	-13556
边	-13557
迎	-13558
运	-13559
返	-13560
迪	-13561
逃	-13562
違	-13563
遗	-13564
避	-13565
郷	-13566
醫	-13567
醸	-13568
释	-13569
釋	-13570
釿	-13571
錦	-13572
録	-13573
鍋	-13574
鎖	-13575
针	-13576
铁	-13577
铝	-13578
铸	-13579
铺	-13580
键	-13581
镇	-13582
関	-13583
闔	-13584
闫	-13585
队	-13586
阶	-13587
陀	-13588
际	-13589
陌	-13590
陳	-13591
陵	-13592
随	-13593
障	-13594
隠	-13595
隼	-13596
雄	-13597
離	-13598
露	-13599
革	-13600
鞐	-13601
韃	-13602
韜	-13603
韵	-13604
韶	-13605
頂	-13606
順	-13607
預	-13608
頭	-13609
頼	-13610
顔	-13611
飞	-13612
飯	-13613
馆	-13614
駄	-13615
骨	-13616
髣	-13617
髭	-13618
鬼	-13619
魅	-13620
魏	-13621
鯖	-13622
鱒	-13623
鱷	-13624
鷲	-13625
麺	-13626
黎	-13627
黑	-13628
齊	-13629
齏	-13630
齢	-13631
꒡	-13632
ꜛ	-13633
ꜜ	-13634
겸	-13635
곡	-13636
공	-13637
광	-13638
귀	-13639
글	-13640
날	-13641
냥	-13642
넷	-13643
녕	-13644
놀	-13645
누	-13646
늄	-13647
능	-13648
님	-13649
단	-13650
당	-13651
덕	-13652
되	-13653
된	-13654
둑	-13655
둻	-13656
득	-13657
때	-13658
뜻	-13659
람	-13660
러	-13661
렇	-13662
레	-13663
려	-13664
렸	-13665
령	-13666
롭	-13667
류	-13668
면	-13669
멸	-13670
명	-13671
목	-13672
몫	-13673
못	-13674
발	-13675
방	-13676
번	-13677
본	-13678
뻐	-13679
송	-13680
숨	-13681
습	-13682
승	-13683
십	-13684
암	-13685
억	-13686
얼	-13687
열	-13688
온	-13689
옳	-13690
입	-13691
잔	-13692
잘	-13693
잡	-13694
적	-13695
점	-13696
정	-13697
제	-13698
준	-13699
중	-13700
즐	-13701
창	-13702
쳐	-13703
추	-13704
치	-13705
칸	-13706
칼	-13707
캐	-13708
쿠	-13709
터	-13710
테	-13711
텍	-13712
폭	-13713
프	-13714
학	-13715
혜	-13716
혼	-13717
환	-13718
히	-13719
	-13720
	-13721
	-13722
	-13723
	-13724
	-13725
	-13726
	-13727
	-13728
	-13729
	-13730
	-13731
	-13732
	-13733
	-13734
	-13735
	-13736
	-13737
	-13738
	-13739
𐌼	-13740
𒀀	-13741
𒁀	-13742
𒁕	-13743
𒂵	-13744
𒆪	-13745
𒈠	-13746
𒉿	-13747
𒍝	-13748
🅾	-13749
🇾	-13750
🌅	-13751
🌍	-13752
🌜	-13753
🌲	-13754
🌳	-13755
🌵	-13756
🌾	-13757
🍄	-13758
🍅	-13759
🍇	-13760
🍊	-13761
🍎	-13762
🍔	-13763
🍗	-13764
🍜	-13765
🍥	-13766
🍭	-13767
🍯	-13768
🍼	-13769
🎣	-13770
🎮	-13771
🎯	-13772
🎹	-13773
🏈	-13774
🏖	-13775
🏡	-13776
🏮	-13777
🐍	-13778
🐎	-13779
🐐	-13780
🐔	-13781
🐝	-13782
🐤	-13783
🐬	-13784
🐮	-13785
🐯	-13786
👄	-13787
👐	-13788
👟	-13789
👢	-13790
👦	-13791
👹	-13792
💄	-13793
💅	-13794
💈	-13795
💐	-13796
💠	-13797
💢	-13798
💩	-13799
💮	-13800
💻	-13801
💽	-13802
📘	-13803
📢	-13804
📲	-13805
🔞	-13806
🔮	-13807
🔰	-13808
😞	-13809
😶	-13810
😷	-13811
😸	-13812
😹	-13813
😾	-13814
🙅	-13815
🙇	-13816
🚐	-13817
🚫	-13818
🤞	-13819
🤟	-13820
🤠	-13821
🤦	-13822
🤧	-13823
🤭	-13824
🤲	-13825
🦁	-13826
🦖	-13827
🧡	-13828
Ċ	-13829
ģ	-13830
Ŭ	-13831
ƅ	-13832
Ƈ	-13833
ƍ	-13834
Ǝ	-13835
Ƒ	-13836
Ɣ	-13837
Ơ	-13838
ƣ	-13839
Ʃ	-13840
Ʊ	-13841
ǂ	-13842
ǃ	-13843
ǣ	-13844
Ǥ	-13845
ǥ	-13846
Ǧ	-13847
Ǩ	-13848
Ȃ	-13849
Ƞ	-13850
ȣ	-13851
Ȩ	-13852
ȫ	-13853
Ƀ	-13854
ɧ	-13855
ɰ	-13856
ɳ	-13857
ɵ	-13858
ɹ	-13859
ɻ	-13860
ɽ	-13861
ʍ	-13862
ʎ	-13863
ʏ	-13864
ʠ	-13865
˂	-13866
˧	-13867
˨	-13868
˩	-13869
˳	-13870
̅	-13871
̌	-13872
̒	-13873
̔	-13874
̭	-13875
̮	-13876
̰	-13877
̵	-13878
͂	-13879
͑	-13880
͒	-13881
͔	-13882
Ͷ	-13883
Ά	-13884
Ή	-13885
Ό	-13886
Ϋ	-13887
ϊ	-13888
Ϸ	-13889
ϻ	-13890
Ͻ	-13891
Є	-13892
Ћ	-13893
Џ	-13894
њ	-13895
ѻ	-13896
Ѽ	-13897
ғ	-13898
җ	-13899
ҙ	-13900
Ҥ	-13901
ү	-13902
ҳ	-13903
ӗ	-13904
ӡ	-13905
ө	-13906
Ӭ	-13907
Ӻ	-13908
ԁ	-13909
ԣ	-13910
Ԯ	-13911
Գ	-13912
Դ	-13913
Խ	-13914
Կ	-13915
Ձ	-13916
Շ	-13917
՝	-13918
ժ	-13919
ջ	-13920
օ	-13921
։	-13922
֞	-13923
֪	-13924
׀	-13925
٥	-13926
٧	-13927
٩	-13928
ٹ	-13929
ٽ	-13930
ڀ	-13931
ڈ	-13932
ڍ	-13933
ړ	-13934
ڶ	-13935
ۆ	-13936
ۍ	-13937
ۗ	-13938
۩	-13939
۵	-13940
ܕ	-13941
ܡ	-13942
ܢ	-13943
ܤ	-13944
ܥ	-13945
ܫ	-13946
ܬ	-13947
ܰ	-13948
ܶ	-13949
ܺ	-13950
ܿ	-13951
ݨ	-13952
ހ	-13953
ނ	-13954
ފ	-13955
ދ	-13956
ތ	-13957
ޤ	-13958
ޥ	-13959
ާ	-13960
ެ	-13961
ߴ	-13962
ߵ	-13963
ߺ	-13964
ँ	-13965
इ	-13966
उ	-13967
छ	-13968
ञ	-13969
ढ	-13970
थ	-13971
फ	-13972
ॉ	-13973
ौ	-13974
ॐ	-13975
३	-13976
ॽ	-13977
আ	-13978
ই	-13979
উ	-13980
ঘ	-13981
ছ	-13982
ট	-13983
ড	-13984
র	-13985
শ	-13986
হ	-13987
়	-13988
ী	-13989
ো	-13990
্	-13991
ੂ	-13992
ચ	-13993
ન	-13994
ય	-13995
લ	-13996
િ	-13997
્	-13998
ૐ	-13999
૚	-14000
ଆ	-14001
ଓ	-14002
ଗ	-14003
ଞ	-14004
ଟ	-14005
ଠ	-14006
ନ	-14007
ଲ	-14008
ସ	-14009
଼	-14010
ା	-14011
ି	-14012
୍	-14013
உ	-14014
ஐ	-14015
ஓ	-14016
ங	-14017
ர	-14018
ோ	-14019
క	-14020
డ	-14021
మ	-14022
స	-14023
్	-14024
ಂ	-14025
ಗ	-14026
ಜ	-14027
ಭ	-14028
ಲ	-14029
ಶ	-14030
ು	-14031
ഇ	-14032
ഉ	-14033
എ	-14034
ഖ	-14035
ഗ	-14036
ച	-14037
ട	-14038
ഠ	-14039
ഡ	-14040
ദ	-14041
ബ	-14042
ര	-14043
വ	-14044
ശ	-14045
ീ	-14046
ൂ	-14047
േ	-14048
ോ	-14049
ൗ	-14050
ൾ	-14051
ත	-14052
න	-14053
ම	-14054
ර	-14055
ා	-14056
ฟ	-14057
ฬ	-14058
ๆ	-14059
ງ	-14060
ຊ	-14061
ດ	-14062
ມ	-14063
ອ	-14064
ະ	-14065
ັ	-14066
ິ	-14067
ີ	-14068
ື	-14069
ເ	-14070
ໄ	-14071
།	-14072
ཀ	-14073
ག	-14074
ད	-14075
ན	-14076
བ	-14077
ལ	-14078
ཨ	-14079
ི	-14080
ེ	-14081
ོ	-14082
ྷ	-14083
࿇	-14084
ဆ	-14085
တ	-14086
ဖ	-14087
ယ	-14088
ဝ	-14089
ဟ	-14090
၁	-14091
၊	-14092
ၚ	-14093
ၝ	-14094
ႆ	-14095
ႊ	-14096
႐	-14097
ბ	-14098
ზ	-14099
ტ	-14100
ყ	-14101
ც	-14102
ძ	-14103
წ	-14104
ხ	-14105
቎	-14106
቗	-14107
ፙ	-14108
᎔	-14109
Ꭲ	-14110
Ꭺ	-14111
Ꭼ	-14112
Ꮆ	-14113
Ꮈ	-14114
Ꮒ	-14115
Ꮔ	-14116
Ꮠ	-14117
Ꮷ	-14118
Ᏸ	-14119
Ᏼ	-14120
ᐊ	-14121
ᐲ	-14122
ᑯ	-14123
ᒸ	-14124
ᒻ	-14125
ᓯ	-14126
ᔑ	-14127
ᗜ	-14128
ក	-14129
គ	-14130
ង	-14131
ច	-14132
ត	-14133
ប	-14134
យ	-14135
ល	-14136
ហ	-14137
ិ	-14138
ី	-14139
ោ	-14140
់	-14141
᠎	-14142
ᠣ	-14143
ᠤ	-14144
ᠩ	-14145
ᠪ	-14146
ᠯ	-14147
ᠰ	-14148
ᠵ	-14149
ᤱ	-14150
ᥙ	-14151
ᥱ	-14152
᧐	-14153
ᴀ	-14154
ᴄ	-14155
ᴎ	-14156
ᴗ	-14157
ᴛ	-14158
ᴡ	-14159
ᴥ	-14160
ḋ	-14161
ḗ	-14162
Ḟ	-14163
Ḣ	-14164
Ṁ	-14165
ṑ	-14166
ṝ	-14167
ṡ	-14168
ṫ	-14169
Ả	-14170
Ầ	-14171
Ẫ	-14172
Ậ	-14173
Ắ	-14174
Ằ	-14175
Ẳ	-14176
ẳ	-14177
Ẵ	-14178
ẵ	-14179
Ặ	-14180
Ẻ	-14181
Ế	-14182
Ề	-14183
Ể	-14184
Ễ	-14185
Ệ	-14186
Ỉ	-14187
Ỏ	-14188
Ố	-14189
Ồ	-14190
Ổ	-14191
Ỗ	-14192
ỗ	-14193
Ộ	-14194
Ớ	-14195
Ờ	-14196
Ở	-14197
ở	-14198
Ỡ	-14199
ỡ	-14200
Ợ	-14201
ợ	-14202
Ụ	-14203
Ủ	-14204
Ứ	-14205
Ừ	-14206
Ử	-14207
Ữ	-14208
Ự	-14209
Ỳ	-14210
ỳ	-14211
Ỵ	-14212
ỵ	-14213
Ỷ	-14214
ỷ	-14215
Ỹ	-14216
ỹ	-14217
ἄ	-14218
Ἄ	-14219
ἐ	-14220
ἔ	-14221
Ἐ	-14222
ἦ	-14223
ἧ	-14224
Ἰ	-14225
ὀ	-14226
Ὀ	-14227
Ὠ	-14228
ῦ	-14229
‣	-14230
‿	-14231
⁃	-14232
₪	-14233
₫	-14234
₽	-14235
⃝	-14236
↝	-14237
↠	-14238
↪	-14239
⇄	-14240
⇌	-14241
⇢	-14242
∃	-14243
∎	-14244
∘	-14245
∪	-14246
⊰	-14247
⋃	-14248
⋔	-14249
⋙	-14250
⋮	-14251
⌒	-14252
⍁	-14253
⑅	-14254
┐	-14255
┗	-14256
┛	-14257
┴	-14258
┿	-14259
╕	-14260
╖	-14261
╗	-14262
╜	-14263
╢	-14264
╨	-14265
╭	-14266
╮	-14267
▓	-14268
▿	-14269
◈	-14270
◢	-14271
◾	-14272
☉	-14273
☚	-14274
☜	-14275
☠	-14276
☦	-14277
☯	-14278
♉	-14279
♊	-14280
♐	-14281
♓	-14282
♟	-14283
♤	-14284
♮	-14285
♻	-14286
♿	-14287
⚛	-14288
⛑	-14289
⛲	-14290
✂	-14291
✐	-14292
✝	-14293
✟	-14294
✤	-14295
✥	-14296
✦	-14297
✫	-14298
✳	-14299
❎	-14300
❶	-14301
❷	-14302
❸	-14303
➠	-14304
➦	-14305
➧	-14306
➫	-14307
➳	-14308
⠃	-14309
⠕	-14310
⠗	-14311
⠙	-14312
⠠	-14313
⠧	-14314
⡧	-14315
⣌	-14316
⤠	-14317
⤵	-14318
⦕	-14319
⦖	-14320
⬅	-14321
⬘	-14322
⬢	-14323
ⲁ	-14324
ⲓ	-14325
ⲣ	-14326
ⲫ	-14327
ⲱ	-14328
ⴻ	-14329
ⴼ	-14330
ⵓ	-14331
ⵙ	-14332
ⶂ	-14333
ⶈ	-14334
ⶊ	-14335
ⶓ	-14336
ⶥ	-14337
ⶩ	-14338
ⷋ	-14339
ⷝ	-14340
⿽	-14341
〒	-14342
ゐ	-14343
゙	-14344
ゝ	-14345
ㄋ	-14346
ㄗ	-14347
ㄟ	-14348
ㄣ	-14349
㙀	-14350
㷢	-14351
䣺	-14352
丐	-14353
严	-14354
丰	-14355
乂	-14356
乍	-14357
乔	-14358
乖	-14359
乗	-14360
乘	-14361
乪	-14362
买	-14363
予	-14364
亜	-14365
亦	-14366
享	-14367
亶	-14368
亿	-14369
仇	-14370
从	-14371
仏	-14372
伐	-14373
伙	-14374
伟	-14375
伸	-14376
佈	-14377
低	-14378
余	-14379
佚	-14380
佾	-14381
侑	-14382
侵	-14383
俄	-14384
俊	-14385
俱	-14386
倉	-14387
們	-14388
候	-14389
倪	-14390
倶	-14391
值	-14392
偣	-14393
働	-14394
僵	-14395
價	-14396
儷	-14397
兒	-14398
兔	-14399
党	-14400
兩	-14401
养	-14402
兽	-14403
冒	-14404
冘	-14405
冥	-14406
冨	-14407
冻	-14408
冼	-14409
凉	-14410
凡	-14411
划	-14412
刘	-14413
刹	-14414
剑	-14415
剖	-14416
剧	-14417
劇	-14418
劑	-14419
办	-14420
劫	-14421
劲	-14422
勋	-14423
勒	-14424
勘	-14425
勾	-14426
勿	-14427
匙	-14428
匹	-14429
卌	-14430
卑	-14431
卓	-14432
協	-14433
卜	-14434
卦	-14435
卯	-14436
卷	-14437
卸	-14438
卿	-14439
厂	-14440
厶	-14441
參	-14442
叶	-14443
吐	-14444
吕	-14445
吲	-14446
吴	-14447
吸	-14448
吾	-14449
呈	-14450
呼	-14451
呾	-14452
咀	-14453
咁	-14454
咂	-14455
咒	-14456
咖	-14457
咲	-14458
咳	-14459
咿	-14460
哀	-14461
哇	-14462
哎	-14463
哥	-14464
哼	-14465
唏	-14466
售	-14467
唸	-14468
啓	-14469
喃	-14470
喔	-14471
喙	-14472
喫	-14473
嗄	-14474
嗡	-14475
嗰	-14476
嘎	-14477
噢	-14478
嚴	-14479
囊	-14480
园	-14481
圆	-14482
團	-14483
均	-14484
坏	-14485
块	-14486
坡	-14487
坤	-14488
坦	-14489
坪	-14490
垣	-14491
埃	-14492
執	-14493
培	-14494
埼	-14495
堅	-14496
堙	-14497
塚	-14498
填	-14499
墀	-14500
壓	-14501
壯	-14502
备	-14503
夤	-14504
奉	-14505
奋	-14506
契	-14507
奠	-14508
奢	-14509
奨	-14510
她	-14511
妇	-14512
妖	-14513
妙	-14514
妨	-14515
妲	-14516
妳	-14517
姆	-14518
姥	-14519
姻	-14520
姿	-14521
娑	-14522
娘	-14523
娠	-14524
嫖	-14525
嫣	-14526
嫵	-14527
嬢	-14528
孔	-14529
孕	-14530
孟	-14531
宇	-14532
宗	-14533
宜	-14534
宥	-14535
宽	-14536
寄	-14537
寅	-14538
寛	-14539
寞	-14540
寢	-14541
實	-14542
寶	-14543
専	-14544
對	-14545
導	-14546
尘	-14547
尻	-14548
尿	-14549
届	-14550
屐	-14551
層	-14552
屬	-14553
屹	-14554
岁	-14555
岗	-14556
岛	-14557
岸	-14558
崽	-14559
嶺	-14560
巌	-14561
巢	-14562
巣	-14563
帆	-14564
帖	-14565
帝	-14566
席	-14567
帮	-14568
帶	-14569
幅	-14570
幌	-14571
幡	-14572
幹	-14573
幽	-14574
幾	-14575
広	-14576
庄	-14577
床	-14578
庐	-14579
庫	-14580
庵	-14581
廃	-14582
廳	-14583
廻	-14584
弁	-14585
弊	-14586
弹	-14587
弾	-14588
彫	-14589
彭	-14590
彷	-14591
彼	-14592
征	-14593
很	-14594
徒	-14595
從	-14596
徨	-14597
復	-14598
徹	-14599
徽	-14600
怒	-14601
怜	-14602
怦	-14603
怪	-14604
怿	-14605
恢	-14606
悄	-14607
悠	-14608
惑	-14609
惠	-14610
惨	-14611
愈	-14612
愉	-14613
愴	-14614
慇	-14615
慎	-14616
慢	-14617
憓	-14618
憩	-14619
憲	-14620
懂	-14621
戈	-14622
戎	-14623
战	-14624
戟	-14625
戯	-14626
戶	-14627
戾	-14628
扇	-14629
扰	-14630
扱	-14631
批	-14632
抓	-14633
折	-14634
抛	-14635
抱	-14636
抿	-14637
拂	-14638
拋	-14639
拌	-14640
拔	-14641
招	-14642
拟	-14643
拢	-14644
括	-14645
拳	-14646
拾	-14647
挂	-14648
按	-14649
挞	-14650
捌	-14651
捷	-14652
掀	-14653
掉	-14654
排	-14655
揃	-14656
描	-14657
揺	-14658
損	-14659
携	-14660
摂	-14661
撐	-14662
撒	-14663
撩	-14664
撰	-14665
擊	-14666
操	-14667
據	-14668
攀	-14669
敗	-14670
敦	-14671
敵	-14672
斌	-14673
斎	-14674
斯	-14675
斷	-14676
於	-14677
旃	-14678
旋	-14679
旭	-14680
旺	-14681
昆	-14682
昜	-14683
昼	-14684
晉	-14685
晏	-14686
晨	-14687
暇	-14688
暑	-14689
暱	-14690
曝	-14691
曦	-14692
曽	-14693
替	-14694
朋	-14695
札	-14696
朽	-14697
杉	-14698
杖	-14699
杜	-14700
枡	-14701
枪	-14702
枯	-14703
柄	-14704
柒	-14705
柔	-14706
柳	-14707
柴	-14708
柾	-14709
柿	-14710
栃	-14711
栴	-14712
桅	-14713
桝	-14714
梗	-14715
梭	-14716
梶	-14717
棉	-14718
棗	-14719
棱	-14720
棵	-14721
植	-14722
検	-14723
楚	-14724
楳	-14725
楷	-14726
榱	-14727
構	-14728
槐	-14729
樂	-14730
樅	-14731
樣	-14732
権	-14733
樱	-14734
檀	-14735
檐	-14736
櫃	-14737
櫟	-14738
款	-14739
歓	-14740
歡	-14741
歲	-14742
歴	-14743
歸	-14744
毁	-14745
毫	-14746
氘	-14747
氚	-14748
氛	-14749
氧	-14750
氨	-14751
汇	-14752
汕	-14753
污	-14754
汽	-14755
沈	-14756
沉	-14757
沐	-14758
没	-14759
沥	-14760
沼	-14761
沽	-14762
泊	-14763
泵	-14764
洁	-14765
浏	-14766
浑	-14767
浩	-14768
浮	-14769
浸	-14770
涂	-14771
涪	-14772
涸	-14773
涼	-14774
淡	-14775
淩	-14776
混	-14777
淹	-14778
渋	-14779
渓	-14780
渕	-14781
渝	-14782
渲	-14783
渴	-14784
湘	-14785
湧	-14786
湯	-14787
湿	-14788
準	-14789
溪	-14790
漂	-14791
潮	-14792
潼	-14793
澡	-14794
澤	-14795
澶	-14796
濃	-14797
濕	-14798
濟	-14799
濯	-14800
瀋	-14801
瀧	-14802
瀬	-14803
灭	-14804
灯	-14805
灵	-14806
災	-14807
灾	-14808
烈	-14809
烦	-14810
热	-14811
焌	-14812
焔	-14813
焱	-14814
煞	-14815
煥	-14816
熨	-14817
熹	-14818
燃	-14819
燊	-14820
燗	-14821
燚	-14822
爆	-14823
爪	-14824
爭	-14825
爷	-14826
牧	-14827
牮	-14828
牵	-14829
犀	-14830
犯	-14831
犷	-14832
狂	-14833
狐	-14834
狙	-14835
狼	-14836
猥	-14837
猿	-14838
獨	-14839
玄	-14840
玎	-14841
玖	-14842
玫	-14843
玲	-14844
玻	-14845
珂	-14846
珈	-14847
珊	-14848
珥	-14849
琅	-14850
琰	-14851
琺	-14852
瑚	-14853
瑟	-14854
瑣	-14855
璃	-14856
瓚	-14857
瓶	-14858
甄	-14859
產	-14860
畑	-14861
異	-14862
畴	-14863
畿	-14864
疆	-14865
疎	-14866
疑	-14867
疱	-14868
疲	-14869
疹	-14870
疽	-14871
痂	-14872
症	-14873
痞	-14874
痳	-14875
癤	-14876
癮	-14877
癸	-14878
登	-14879
皂	-14880
皇	-14881
皤	-14882
皺	-14883
盆	-14884
监	-14885
盒	-14886
盖	-14887
盗	-14888
眄	-14889
瞭	-14890
瞳	-14891
瞼	-14892
矜	-14893
砍	-14894
砒	-14895
硅	-14896
硫	-14897
确	-14898
碍	-14899
碚	-14900
碣	-14901
碱	-14902
磁	-14903
磬	-14904
礦	-14905
祈	-14906
祉	-14907
祓	-14908
祛	-14909
祝	-14910
祠	-14911
禄	-14912
禋	-14913
禕	-14914
税	-14915
稱	-14916
稷	-14917
稽	-14918
穆	-14919
穌	-14920
積	-14921
穏	-14922
穢	-14923
窥	-14924
窨	-14925
窯	-14926
竜	-14927
竞	-14928
竟	-14929
笋	-14930
笛	-14931
筋	-14932
篤	-14933
粋	-14934
粘	-14935
粤	-14936
粮	-14937
粳	-14938
糞	-14939
糯	-14940
糾	-14941
紋	-14942
紛	-14943
組	-14944
絆	-14945
結	-14946
統	-14947
綦	-14948
綾	-14949
締	-14950
縁	-14951
縞	-14952
繪	-14953
纃	-14954
纤	-14955
纳	-14956
纸	-14957
给	-14958
绝	-14959
缶	-14960
缸	-14961
罒	-14962
罠	-14963
署	-14964
羊	-14965
羽	-14966
翅	-14967
翊	-14968
習	-14969
耕	-14970
聊	-14971
聞	-14972
聡	-14973
聯	-14974
肅	-14975
肌	-14976
肛	-14977
肟	-14978
肥	-14979
肺	-14980
胜	-14981
胭	-14982
脂	-14983
脇	-14984
脉	-14985
脱	-14986
脸	-14987
腌	-14988
腱	-14989
腸	-14990
腻	-14991
腾	-14992
膜	-14993
膳	-14994
膾	-14995
臀	-14996
臜	-14997
與	-14998
興	-14999
舍	-15000
舒	-15001
舖	-15002
舜	-15003
艖	-15004
艢	-15005
艱	-15006
艾	-15007
芋	-15008
芙	-15009
芝	-15010
芭	-15011
芯	-15012
芹	-15013
芽	-15014
苅	-15015
苹	-15016
茂	-15017
茄	-15018
茎	-15019
茚	-15020
茨	-15021
茵	-15022
荩	-15023
荪	-15024
莢	-15025
莩	-15026
莫	-15027
莲	-15028
获	-15029
菈	-15030
菠	-15031
菲	-15032
萌	-15033
萍	-15034
萵	-15035
葡	-15036
董	-15037
蒸	-15038
蓙	-15039
蓝	-15040
蔚	-15041
蕉	-15042
蕎	-15043
薄	-15044
薇	-15045
藍	-15046
藻	-15047
蘭	-15048
處	-15049
虫	-15050
虹	-15051
虽	-15052
虾	-15053
蚁	-15054
蚂	-15055
蚊	-15056
蛋	-15057
蜂	-15058
蜊	-15059
蜮	-15060
蝦	-15061
蝶	-15062
蝾	-15063
螅	-15064
融	-15065
螞	-15066
螢	-15067
蟇	-15068
蟹	-15069
蟻	-15070
蟾	-15071
衆	-15072
街	-15073
衞	-15074
袖	-15075
裁	-15076
裂	-15077
裏	-15078
裕	-15079
補	-15080
裸	-15081
裺	-15082
褂	-15083
褄	-15084
褒	-15085
襁	-15086
襃	-15087
襄	-15088
覆	-15089
覇	-15090
覚	-15091
親	-15092
覺	-15093
觀	-15094
览	-15095
觉	-15096
觐	-15097
觞	-15098
触	-15099
訶	-15100
詣	-15101
詹	-15102
誉	-15103
誌	-15104
課	-15105
誹	-15106
諸	-15107
諺	-15108
謎	-15109
譚	-15110
譲	-15111
變	-15112
订	-15113
训	-15114
议	-15115
讯	-15116
许	-15117
讼	-15118
设	-15119
访	-15120
证	-15121
识	-15122
诉	-15123
译	-15124
询	-15125
误	-15126
诵	-15127
诸	-15128
调	-15129
谅	-15130
谈	-15131
谋	-15132
谨	-15133
貞	-15134
貫	-15135
責	-15136
貰	-15137
賄	-15138
賊	-15139
賛	-15140
賞	-15141
賠	-15142
賣	-15143
質	-15144
賴	-15145
责	-15146
账	-15147
货	-15148
赋	-15149
赌	-15150
赏	-15151
赞	-15152
赶	-15153
跃	-15154
跋	-15155
跖	-15156
跣	-15157
踈	-15158
踊	-15159
踏	-15160
蹈	-15161
蹟	-15162
躍	-15163
軍	-15164
軟	-15165
軽	-15166
輕	-15167
輩	-15168
輪	-15169
轢	-15170
轩	-15171
轴	-15172
轶	-15173
轻	-15174
较	-15175
辉	-15176
辑	-15177
辞	-15178
辣	-15179
農	-15180
违	-15181
述	-15182
退	-15183
逐	-15184
逢	-15185
逮	-15186
遅	-15187
遊	-15188
遙	-15189
遥	-15190
遮	-15191
遷	-15192
還	-15193
邇	-15194
邑	-15195
邦	-15196
邮	-15197
邱	-15198
邵	-15199
酉	-15200
酬	-15201
酵	-15202
醉	-15203
醒	-15204
醜	-15205
醬	-15206
鈕	-15207
鈞	-15208
鈬	-15209
鉄	-15210
鉈	-15211
鉱	-15212
鉴	-15213
銇	-15214
銈	-15215
銜	-15216
鋒	-15217
錢	-15218
鍛	-15219
鎧	-15220
鐚	-15221
鑑	-15222
鑫	-15223
鑽	-15224
钛	-15225
钠	-15226
钥	-15227
钩	-15228
铆	-15229
铈	-15230
铋	-15231
铕	-15232
铜	-15233
锁	-15234
锈	-15235
错	-15236
锭	-15237
锶	-15238
镥	-15239
閻	-15240
闪	-15241
闲	-15242
阅	-15243
阎	-15244
阐	-15245
阜	-15246
防	-15247
陕	-15248
陝	-15249
陣	-15250
陶	-15251
陸	-15252
隅	-15253
階	-15254
際	-15255
隻	-15256
雁	-15257
雕	-15258
雙	-15259
雞	-15260
雨	-15261
雫	-15262
雾	-15263
霆	-15264
霖	-15265
霜	-15266
靈	-15267
靖	-15268
靠	-15269
鞋	-15270
鞳	-15271
韈	-15272
韩	-15273
韲	-15274
頌	-15275
頏	-15276
頑	-15277
頻	-15278
額	-15279
顕	-15280
顯	-15281
顺	-15282
顾	-15283
颐	-15284
额	-15285
飄	-15286
飜	-15287
飮	-15288
飽	-15289
飾	-15290
餌	-15291
餐	-15292
饉	-15293
饥	-15294
饼	-15295
馴	-15296
駿	-15297
騎	-15298
騮	-15299
驛	-15300
驱	-15301
驶	-15302
骭	-15303
髀	-15304
髁	-15305
髪	-15306
髮	-15307
魂	-15308
魍	-15309
魎	-15310
魞	-15311
鮎	-15312
鮒	-15313
鮭	-15314
鮮	-15315
鱚	-15316
鲁	-15317
鳐	-15318
鴈	-15319
鴉	-15320
鴾	-15321
鷦	-15322
鷹	-15323
鸣	-15324
鸦	-15325
鹅	-15326
麇	-15327
黃	-15328
黇	-15329
黔	-15330
黻	-15331
鼓	-15332
齋	-15333
龟	-15334
ꑳ	-15335
Ꝁ	-15336
ꬋ	-15337
갑	-15338
겁	-15339
곁	-15340
군	-15341
굴	-15342
극	-15343
긁	-15344
금	-15345
김	-15346
깐	-15347
꺵	-15348
꼬	-15349
꽃	-15350
꾼	-15351
났	-15352
냈	-15353
넓	-15354
녀	-15355
눇	-15356
느	-15357
늑	-15358
동	-15359
될	-15360
디	-15361
땡	-15362
떠	-15363
떨	-15364
떻	-15365
랑	-15366
랜	-15367
랫	-15368
랭	-15369
런	-15370
렌	-15371
력	-15372
록	-15373
롸	-15374
루	-15375
룩	-15376
릉	-15377
림	-15378
립	-15379
맙	-15380
맞	-15381
매	-15382
맨	-15383
멧	-15384
몰	-15385
몹	-15386
몽	-15387
물	-15388
뭐	-15389
반	-15390
밧	-15391
배	-15392
밸	-15393
별	-15394
북	-15395
불	-15396
붓	-15397
빈	-15398
빠	-15399
뻢	-15400
뽀	-15401
쁨	-15402
살	-15403
삼	-15404
상	-15405
색	-15406
샤	-15407
샬	-15408
석	-15409
섬	-15410
섯	-15411
속	-15412
쇄	-15413
쇡	-15414
숙	-15415
숫	-15416
슈	-15417
슴	-15418
실	-15419
썬	-15420
쏟	-15421
씨	-15422
씹	-15423
않	-15424
앤	-15425
얀	-15426
엔	-15427
역	-15428
염	-15429
영	-15430
올	-15431
왕	-15432
외	-15433
용	-15434
울	-15435
움	-15436
워	-15437
임	-15438
잼	-15439
저	-15440
전	-15441
족	-15442
좋	-15443
좌	-15444
줄	-15445
쥐	-15446
즈	-15447
직	-15448
진	-15449
짐	-15450
짓	-15451
차	-15452
찬	-15453
채	-15454
청	-15455
체	-15456
측	-15457
컨	-15458
컴	-15459
케	-15460
콕	-15461
콜	-15462
쾌	-15463
큐	-15464
킴	-15465
탄	-15466
태	-15467
턴	-15468
텀	-15469
템	-15470
통	-15471
틱	-15472
판	-15473
팽	-15474
페	-15475
펜	-15476
편	-15477
평	-15478
표	-15479
풀	-15480
품	-15481
플	-15482
픽	-15483
함	-15484
합	-15485
항	-15486
햄	-15487
했	-15488
행	-15489
현	-15490
회	-15491
휘	-15492
흥	-15493
	-15494
	-15495
	-15496
	-15497
	-15498
	-15499
	-15500
	-15501
	-15502
	-15503
	-15504
	-15505
	-15506
	-15507
	-15508
	-15509
	-15510
	-15511
	-15512
	-15513
	-15514
	-15515
	-15516
	-15517
	-15518
	-15519
	-15520
	-15521
	-15522
	-15523
	-15524
	-15525
	-15526
	-15527
	-15528
	-15529
	-15530
	-15531
	-15532
	-15533
	-15534
	-15535
	-15536
	-15537
	-15538
	-15539
	-15540
	-15541
	-15542
	-15543
	-15544
	-15545
	-15546
	-15547
	-15548
	-15549
	-15550
	-15551
	-15552
	-15553
	-15554
	-15555
	-15556
	-15557
	-15558
	-15559
	-15560
	-15561
	-15562
	-15563
	-15564
︠	-15565
︡	-15566
𐌆	-15567
𐌚	-15568
𐌠	-15569
𐌡	-15570
𐌢	-15571
𐌱	-15572
𐌻	-15573
𐌽	-15574
𐌿	-15575
𐒀	-15576
𐒈	-15577
𐒋	-15578
𐒑	-15579
𐒒	-15580
𐒕	-15581
𐒘	-15582
𐒛	-15583
𐩢	-15584
𐩧	-15585
𐩨	-15586
𒀸	-15587
𒄥	-15588
𒆳	-15589
𒈾	-15590
𒊭	-15591
𒌓	-15592
𞤆	-15593
𞤢	-15594
𞤤	-15595
𞤪	-15596
𞤵	-15597
🅰	-15598
🅿	-15599
🆔	-15600
🇶	-15601
🇽	-15602
🌀	-15603
🌂	-15604
🌄	-15605
🌋	-15606
🌎	-15607
🌒	-15608
🌔	-15609
🌕	-15610
🌝	-15611
🌥	-15612
🌬	-15613
🌽	-15614
🍂	-15615
🍏	-15616
🍖	-15617
🍚	-15618
🍝	-15619
🍢	-15620
🍦	-15621
🍧	-15622
🍩	-15623
🍫	-15624
🍵	-15625
🍶	-15626
🍺	-15627
🍻	-15628
🎃	-15629
🎇	-15630
🎊	-15631
🎒	-15632
🎓	-15633
🎢	-15634
🎳	-15635
🏀	-15636
🏂	-15637
🏇	-15638
🏊	-15639
🏋	-15640
🏓	-15641
🏕	-15642
🏙	-15643
🏝	-15644
🏟	-15645
🏠	-15646
🏧	-15647
🏭	-15648
🏯	-15649
🏵	-15650
🐀	-15651
🐇	-15652
🐉	-15653
🐏	-15654
🐑	-15655
🐓	-15656
🐚	-15657
🐛	-15658
🐢	-15659
🐧	-15660
🐨	-15661
🐪	-15662
🐭	-15663
🐱	-15664
🐴	-15665
🐷	-15666
🐺	-15667
🐽	-15668
👂	-15669
👅	-15670
👎	-15671
👒	-15672
👓	-15673
👕	-15674
👖	-15675
👘	-15676
👚	-15677
👜	-15678
👠	-15679
👣	-15680
👮	-15681
👴	-15682
👷	-15683
💆	-15684
💑	-15685
💟	-15686
💤	-15687
💧	-15688
💬	-15689
💭	-15690
💲	-15691
💳	-15692
📁	-15693
📇	-15694
📕	-15695
📛	-15696
📞	-15697
📣	-15698
📹	-15699
📻	-15700
📽	-15701
🔉	-15702
🔌	-15703
🔎	-15704
🔐	-15705
🔜	-15706
🔨	-15707
🔭	-15708
🔯	-15709
🔴	-15710
🔺	-15711
🔻	-15712
🕖	-15713
🕘	-15714
🕰	-15715
🕸	-15716
🖖	-15717
🗺	-15718
🗼	-15719
😤	-15720
🙃	-15721
🚇	-15722
🚗	-15723
🚘	-15724
🚩	-15725
🚲	-15726
🚿	-15727
🛁	-15728
🛌	-15729
🛣	-15730
🛫	-15731
🤕	-15732
🤛	-15733
🤜	-15734
🤡	-15735
🤨	-15736
🤰	-15737
🤸	-15738
🥊	-15739
🥋	-15740
🥡	-15741
🦂	-15742
